{
  "vocab": {
    "0": "\n",
    "1": " ",
    "2": "!",
    "3": "\"",
    "4": "#",
    "5": "$",
    "6": "%",
    "7": "&",
    "8": "'",
    "9": "(",
    "10": ")",
    "11": "*",
    "12": "+",
    "13": ",",
    "14": "-",
    "15": ".",
    "16": "/",
    "17": "0",
    "18": "1",
    "19": "2",
    "20": "3",
    "21": "4",
    "22": "5",
    "23": "6",
    "24": "7",
    "25": "8",
    "26": "9",
    "27": ":",
    "28": ">",
    "29": "?",
    "30": "@",
    "31": "A",
    "32": "B",
    "33": "C",
    "34": "D",
    "35": "E",
    "36": "F",
    "37": "G",
    "38": "H",
    "39": "I",
    "40": "J",
    "41": "K",
    "42": "L",
    "43": "M",
    "44": "N",
    "45": "O",
    "46": "P",
    "47": "Q",
    "48": "R",
    "49": "S",
    "50": "T",
    "51": "U",
    "52": "V",
    "53": "W",
    "54": "Y",
    "55": "[",
    "56": "]",
    "57": "_",
    "58": "`",
    "59": "a",
    "60": "b",
    "61": "c",
    "62": "d",
    "63": "e",
    "64": "f",
    "65": "g",
    "66": "h",
    "67": "i",
    "68": "j",
    "69": "k",
    "70": "l",
    "71": "m",
    "72": "n",
    "73": "o",
    "74": "p",
    "75": "q",
    "76": "r",
    "77": "s",
    "78": "t",
    "79": "u",
    "80": "v",
    "81": "w",
    "82": "x",
    "83": "y",
    "84": "z",
    "85": "{",
    "86": "|",
    "87": "}",
    "88": " ",
    "89": "º",
    "90": "»",
    "91": "â",
    "92": "÷",
    "93": "ʅ",
    "94": "Θ",
    "95": "ε",
    "96": "κ",
    "97": "ο",
    "98": "ς",
    "99": "τ",
    "100": "ό",
    "101": "Ж",
    "102": "К",
    "103": "а",
    "104": "б",
    "105": "д",
    "106": "к",
    "107": "л",
    "108": "м",
    "109": "н",
    "110": "о",
    "111": "р",
    "112": "с",
    "113": "у",
    "114": "ы",
    "115": "ғ",
    "116": "Қ",
    "117": "ँ",
    "118": "ं",
    "119": "ः",
    "120": "अ",
    "121": "आ",
    "122": "इ",
    "123": "ई",
    "124": "उ",
    "125": "ऊ",
    "126": "ऋ",
    "127": "ऍ",
    "128": "ए",
    "129": "ऐ",
    "130": "ऑ",
    "131": "ओ",
    "132": "औ",
    "133": "क",
    "134": "ख",
    "135": "ग",
    "136": "घ",
    "137": "ङ",
    "138": "च",
    "139": "छ",
    "140": "ज",
    "141": "झ",
    "142": "ञ",
    "143": "ट",
    "144": "ठ",
    "145": "ड",
    "146": "ढ",
    "147": "ण",
    "148": "त",
    "149": "थ",
    "150": "द",
    "151": "ध",
    "152": "न",
    "153": "प",
    "154": "फ",
    "155": "ब",
    "156": "भ",
    "157": "म",
    "158": "य",
    "159": "र",
    "160": "ऱ",
    "161": "ल",
    "162": "ळ",
    "163": "ऴ",
    "164": "व",
    "165": "श",
    "166": "ष",
    "167": "स",
    "168": "ह",
    "169": "़",
    "170": "ा",
    "171": "ि",
    "172": "ी",
    "173": "ु",
    "174": "ू",
    "175": "ृ",
    "176": "ॅ",
    "177": "े",
    "178": "ै",
    "179": "ॉ",
    "180": "ो",
    "181": "ौ",
    "182": "्",
    "183": "ड़",
    "184": "फ़",
    "185": "य़",
    "186": "।",
    "187": "॥",
    "188": "०",
    "189": "१",
    "190": "२",
    "191": "३",
    "192": "४",
    "193": "५",
    "194": "६",
    "195": "७",
    "196": "८",
    "197": "९",
    "198": "ॲ",
    "199": "‌",
    "200": "‍",
    "201": "–",
    "202": "—",
    "203": "‘",
    "204": "’",
    "205": "“",
    "206": "”",
    "207": "…",
    "208": "▪",
    "209": "या",
    "210": "ी ",
    "211": "्या",
    "212": "ा ",
    "213": "\n\n",
    "214": "े ",
    "215": ".\n\n",
    "216": "त ",
    "217": "्र",
    "218": "ार",
    "219": " क",
    "220": "्या ",
    "221": "न ",
    "222": "आह",
    "223": "े.\n\n",
    "224": "्य",
    "225": "ां",
    "226": "र्",
    "227": "र ",
    "228": "ेल",
    "229": "ाल",
    "230": "ाह",
    "231": ", ",
    "232": "त्या",
    "233": "स्",
    "234": "प्र",
    "235": "वा",
    "236": "च्या ",
    "237": "आहे.\n\n",
    "238": "वि",
    "239": "क ",
    "240": "रा",
    "241": "्ह",
    "242": "मा",
    "243": "ती",
    "244": "क्",
    "245": "ल ",
    "246": "सा",
    "247": "ला ",
    "248": "हो",
    "249": "ण्या",
    "250": "ता",
    "251": "ची ",
    "252": "त्र",
    "253": "चे ",
    "254": "चा ",
    "255": "आण",
    "256": "ून ",
    "257": "अस",
    "258": " म",
    "259": "ने ",
    "260": "आणि",
    "261": "ना ",
    "262": " स",
    "263": "नी ",
    "264": "ेत",
    "265": "का",
    "266": "पा",
    "267": "नि",
    "268": "ार ",
    "269": "मु",
    "270": "ना",
    "271": "त्",
    "272": "दे",
    "273": "ला",
    "274": "ी.\n\n",
    "275": "कर",
    "276": "या ",
    "277": "यां",
    "278": "ण ",
    "279": "ही ",
    "280": "च ",
    "281": "आणि ",
    "282": "ध्य",
    "283": "दि",
    "284": "क्ष",
    "285": " कर",
    "286": "नाह",
    "287": "त्यां",
    "288": "ंद",
    "289": "झाल",
    "290": "वर ",
    "291": "स ",
    "292": "पर",
    "293": "कार",
    "294": "ती ",
    "295": "ात ",
    "296": "व ",
    "297": "सं",
    "298": "य ",
    "299": "ंत",
    "300": "ष्",
    "301": "म्ह",
    "302": "ले ",
    "303": "साठ",
    "304": "वे",
    "305": "जा",
    "306": "भा",
    "307": "मध्य",
    "308": "ने",
    "309": "ली ",
    "310": "तो",
    "311": "ति",
    "312": "मि",
    "313": "साठी ",
    "314": "ण्यात ",
    "315": "मध्ये ",
    "316": "ू ",
    "317": "आप",
    "318": "द्",
    "319": "ुर",
    "320": "आहेत",
    "321": " केल",
    "322": "ल्या",
    "323": "रो",
    "324": "स्थ",
    "325": "ष्ट",
    "326": "व्ह",
    "327": "नाही.\n\n",
    "328": "बा",
    "329": "ता ",
    "330": "ते ",
    "331": "दा",
    "332": "शि",
    "333": "केल",
    "334": "ोल",
    "335": "ील ",
    "336": "आहेत.\n\n",
    "337": "भार",
    "338": "ते.\n\n",
    "339": "ळे ",
    "340": "ण्यात आ",
    "341": "हि",
    "342": "ं ",
    "343": "च्या",
    "344": "तील ",
    "345": "म ",
    "346": "वर",
    "347": "श्",
    "348": "राज",
    "349": "ये",
    "350": "गा",
    "351": "ते",
    "352": "मी ",
    "353": ". ",
    "354": "हे ",
    "355": "हा",
    "356": "णा",
    "357": "कां",
    "358": "मुळे ",
    "359": "सां",
    "360": "्यां",
    "361": "ाला ",
    "362": "धा",
    "363": "लो",
    "364": "?\n\n",
    "365": "णी ",
    "366": "चि",
    "367": "सर्",
    "368": "लेल",
    "369": "के",
    "370": "पू",
    "371": "शा",
    "372": "ाही ",
    "373": "आहे",
    "374": "का ",
    "375": "ल्",
    "376": "हा ",
    "377": " का",
    "378": "ंड",
    "379": "मो",
    "380": "तर ",
    "381": "ंत्र",
    "382": "तु",
    "383": "णे ",
    "384": "िं",
    "385": "शी ",
    "386": "णार ",
    "387": "से",
    "388": "कड",
    "389": "्य ",
    "390": "ार्",
    "391": "ित ",
    "392": "की",
    "393": "पु",
    "394": "ल्या ",
    "395": "ट ",
    "396": "सु",
    "397": "यांनी ",
    "398": "मे",
    "399": "सर",
    "400": "को",
    "401": "ंद्र",
    "402": "पोल",
    "403": "तर",
    "404": "ाहि",
    "405": "वड",
    "406": "रि",
    "407": "ळ ",
    "408": "सो",
    "409": "वा ",
    "410": "वी",
    "411": "यो",
    "412": "धि",
    "413": "होते.\n\n",
    "414": "प ",
    "415": "क्र",
    "416": "नंत",
    "417": "त्य",
    "418": "द्या",
    "419": "ग्र",
    "420": "व्य",
    "421": "ंब",
    "422": "ले",
    "423": "दो",
    "424": "शक",
    "425": "ली",
    "426": "उप",
    "427": "त.\n\n",
    "428": "ग ",
    "429": "न्",
    "430": "चार",
    "431": "दु",
    "432": "खा",
    "433": "दी ",
    "434": "टा",
    "435": "म्हण",
    "436": "ष्ट्र",
    "437": "त्र ",
    "438": "देश",
    "439": "टी",
    "440": "वर्",
    "441": "ळी ",
    "442": "ले.\n\n",
    "443": "र्थ",
    "444": "ज ",
    "445": "रु",
    "446": "निर्",
    "447": "द्ध",
    "448": "पूर्",
    "449": "रे",
    "450": "एक ",
    "451": "असे ",
    "452": "नंतर ",
    "453": "ग्",
    "454": "न्या",
    "455": "द ",
    "456": "होती",
    "457": "ीत ",
    "458": " को",
    "459": "वी ",
    "460": "मी",
    "461": "आहे ",
    "462": "वार",
    "463": "गो",
    "464": "लाग",
    "465": "ा.\n\n",
    "466": "पास",
    "467": "घे",
    "468": "परि",
    "469": "ली.\n\n",
    "470": "मंत्र",
    "471": "गु",
    "472": "तो ",
    "473": "अधि",
    "474": "गि",
    "475": "म्ही ",
    "476": "घट",
    "477": "ी, ",
    "478": "णार",
    "479": "भाज",
    "480": "की ",
    "481": "भारता",
    "482": "राह",
    "483": "जी ",
    "484": "ाय",
    "485": "मुख",
    "486": "त्या ",
    "487": "मिळ",
    "488": "होती.\n\n",
    "489": "जे",
    "490": "नु",
    "491": "पोलि",
    "492": "च्",
    "493": "न्ह",
    "494": "ून",
    "495": "सुर",
    "496": "ांना ",
    "497": "त्यांनी ",
    "498": "ला.\n\n",
    "499": "उत्",
    "500": "राष्ट्र",
    "501": "धी ",
    "502": "अभ",
    "503": "ण्यासाठी ",
    "504": "मान",
    "505": "पण ",
    "506": "लि",
    "507": "नी",
    "508": "घेत",
    "509": "बाब",
    "510": "स्था",
    "511": "एक",
    "512": "यु",
    "513": "मह",
    "514": " कार",
    "515": "री ",
    "516": "दी",
    "517": "गेल",
    "518": "होता",
    "519": "प्",
    "520": " सं",
    "521": "मध",
    "522": "सी",
    "523": "घा",
    "524": " करण्यात आ",
    "525": "त्यांना ",
    "526": "डि",
    "527": "जी",
    "528": "स्ट",
    "529": "दाख",
    "530": "ली आहे.\n\n",
    "531": ": ",
    "532": "तो.\n\n",
    "533": "ड ",
    "534": "्यात ",
    "535": "पी",
    "536": "प्रधा",
    "537": "चित्र",
    "538": "जि",
    "539": "वाढ",
    "540": "भू",
    "541": "ी आहे.\n\n",
    "542": "कि",
    "543": "शे",
    "544": "पंत",
    "545": "ारा",
    "546": "पंतप्रधा",
    "547": "श ",
    "548": "त्यामुळे ",
    "549": "त आहे.\n\n",
    "550": "यात ",
    "551": "सह",
    "552": "आपल्या ",
    "553": "ळा",
    "554": "लेल्या ",
    "555": "पोलिसां",
    "556": "आरो",
    "557": "री",
    "558": "माझ",
    "559": "डी",
    "560": "ंत ",
    "561": "क्त ",
    "562": "निवड",
    "563": "काही ",
    "564": " मो",
    "565": "दर",
    "566": "पे",
    "567": "ठे",
    "568": "सर्व",
    "569": "माहि",
    "570": "ंग",
    "571": "ा आहे.\n\n",
    "572": "सि",
    "573": "णी",
    "574": "नाही",
    "575": "ांनी ",
    "576": "ंध",
    "577": "ज्",
    "578": "थे ",
    "579": "ल.\n\n",
    "580": "अभि",
    "581": "पड",
    "582": "दिव",
    "583": "स्व",
    "584": "तून ",
    "585": "अने",
    "586": "ण्याची ",
    "587": "तात.\n\n",
    "588": "ले आहे.\n\n",
    "589": "धी",
    "590": "दार",
    "591": "नो",
    "592": "मंत्री ",
    "593": "टी ",
    "594": "चित्रप",
    "595": "\"\"",
    "596": " मि",
    "597": "होता.\n\n",
    "598": "क्ष ",
    "599": ") ",
    "600": "मला ",
    "601": "भाजप",
    "602": "प्रकर",
    "603": "यांच्या ",
    "604": "पि",
    "605": "कडे ",
    "606": "मात्र ",
    "607": "कु",
    "608": "वेळी ",
    "609": "ग्रे",
    "610": "ला आहे.\n\n",
    "611": "ब्",
    "612": "द्द",
    "613": "चा",
    "614": "ू शक",
    "615": "कार ",
    "616": "झाले ",
    "617": "जे ",
    "618": " म्ह",
    "619": "असल्या",
    "620": "लोकां",
    "621": "ांग",
    "622": "वर्ष",
    "623": "कर्",
    "624": "माहिती ",
    "625": " करा",
    "626": "जो",
    "627": "आम",
    "628": "ांच्या ",
    "629": "देख",
    "630": "वे ",
    "631": "ाही",
    "632": "आय",
    "633": "वाह",
    "634": "स्ता",
    "635": "स्त",
    "636": "धार",
    "637": "मोठ",
    "638": "वात ",
    "639": "शो",
    "640": "भे",
    "641": "नस",
    "642": "ठा",
    "643": "आम्ही ",
    "644": "े, ",
    "645": "सरकार",
    "646": "दर्",
    "647": "ऊ ",
    "648": "0 ",
    "649": "्रि",
    "650": "खे",
    "651": "भाग",
    "652": " के",
    "653": "साम",
    "654": "ांची ",
    "655": "गर",
    "656": "चाल",
    "657": "ई ",
    "658": "णाल",
    "659": "कर ",
    "660": "पंतप्रधान ",
    "661": "पर्य",
    "662": "गित",
    "663": "मा ",
    "664": "विष",
    "665": "णार आहे.\n\n",
    "666": "त्याला ",
    "667": "श्र",
    "668": "ीय ",
    "669": "आपल्या",
    "670": "विरो",
    "671": "ज्ञ",
    "672": "’ ",
    "673": "स्प",
    "674": "विद्या",
    "675": "ट्",
    "676": "नेत",
    "677": "झालेल",
    "678": "दार ",
    "679": "असा ",
    "680": "प्रमा",
    "681": "मार",
    "682": "ांचा ",
    "683": " सुर",
    "684": "विचार",
    "685": "नाही ",
    "686": "दोन ",
    "687": "पोली",
    "688": "भारती",
    "689": "देखील ",
    "690": "पुढ",
    "691": "यांच्या",
    "692": "अनेक ",
    "693": "पो",
    "694": "शा ",
    "695": "मृ",
    "696": "ध ",
    "697": "पासून ",
    "698": "सार",
    "699": "मुख्य",
    "700": "चं ",
    "701": "न कर",
    "702": "अर्थ",
    "703": "व्यव",
    "704": "कृ",
    "705": "पोलिसांनी ",
    "706": "ँग्रे",
    "707": "नव्ह",
    "708": "काय",
    "709": "म्",
    "710": "निवडण",
    "711": "प्रा",
    "712": " कु",
    "713": "न्हा ",
    "714": "लं",
    "715": "न्याया",
    "716": "रात ",
    "717": "त्याने ",
    "718": "पण",
    "719": "आपण ",
    "720": "माग",
    "721": "पुर",
    "722": "अध्य",
    "723": "दाखल",
    "724": "मुंब",
    "725": "तसे",
    "726": "देशा",
    "727": "शिक्ष",
    "728": "सांगित",
    "729": "शी",
    "730": "असून ",
    "731": "गां",
    "732": " मिळ",
    "733": "पहि",
    "734": "ु ",
    "735": "बि",
    "736": "निर्ण",
    "737": "त्यांच्या ",
    "738": "ेल ",
    "739": "ताना ",
    "740": "पै",
    "741": " सर",
    "742": "ण्याचा ",
    "743": "प्रश्",
    "744": "योज",
    "745": "मात्र",
    "746": "सा ",
    "747": "कोण",
    "748": "त नाही.\n\n",
    "749": "ळा ",
    "750": "मान ",
    "751": "त्ये",
    "752": "च्छ",
    "753": "ख ",
    "754": "व्या",
    "755": "कडून ",
    "756": " काही ",
    "757": "ठेव",
    "758": "बद्द",
    "759": "एका ",
    "760": "म्हणाल",
    "761": "मधील ",
    "762": "सम",
    "763": "सर्व ",
    "764": "ऱ्या ",
    "765": "मुल",
    "766": "योग",
    "767": "नरे",
    "768": " केले ",
    "769": "पक्ष",
    "770": "मार्",
    "771": "सोब",
    "772": "ेल.\n\n",
    "773": " म्हण",
    "774": "ळी",
    "775": "त्वा",
    "776": ", अ",
    "777": "आता ",
    "778": "म्हाला ",
    "779": "० ",
    "780": "दिल्",
    "781": " मु",
    "782": "खू",
    "783": "पर्यंत ",
    "784": "त कर",
    "785": "द्य",
    "786": "ाल ",
    "787": "ऱ्यां",
    "788": "ट्र",
    "789": "फे",
    "790": "ऊन ",
    "791": "के ",
    "792": "कस",
    "793": "त्यांच्या",
    "794": "स्थि",
    "795": "ची",
    "796": "लं ",
    "797": "गोष्ट",
    "798": "चे",
    "799": "णा ",
    "800": "नरेंद्र",
    "801": "बंध",
    "802": "पाह",
    "803": "विश्",
    "804": "न्यायाल",
    "805": "करा",
    "806": "दा ",
    "807": "प्रकार",
    "808": "स्त्र",
    "809": "शह",
    "810": "वृ",
    "811": "बाबत ",
    "812": " क्",
    "813": "घड",
    "814": "टो",
    "815": "म्या",
    "816": "वाट",
    "817": "जव",
    "818": "ऱ्या",
    "819": "फो",
    "820": "या स",
    "821": "ांमध्ये ",
    "822": "चर्",
    "823": "ूक ",
    "824": "शेत",
    "825": "पोलीस ",
    "826": "क्षा ",
    "827": "प्रति",
    "828": "अधिक ",
    "829": "काम",
    "830": "व्हा ",
    "831": "महा",
    "832": "स्त ",
    "833": "नरेंद्र मो",
    "834": "ठर",
    "835": "चौ",
    "836": "महि",
    "837": "समा",
    "838": "चांग",
    "839": "रुग्",
    "840": "यांना ",
    "841": "लेले ",
    "842": "पूर्ण ",
    "843": "िक ",
    "844": "खाल",
    "845": "डी ",
    "846": "यत्",
    "847": "व्हा",
    "848": "यला ",
    "849": "जग",
    "850": "त आहेत.\n\n",
    "851": "पाकि",
    "852": "यहो",
    "853": "20",
    "854": "वास",
    "855": "तुम",
    "856": "त अस",
    "857": "अप",
    "858": "टक",
    "859": "दिस",
    "860": "रा ",
    "861": "पाकिस्ता",
    "862": " कि",
    "863": "न, ",
    "864": "बोल",
    "865": "प्रयत्",
    "866": "तुम्ही ",
    "867": "तीन ",
    "868": "ांचे ",
    "869": "पाठ",
    "870": "जात ",
    "871": "शिव",
    "872": "विरोध",
    "873": "झाला.\n\n",
    "874": " सु",
    "875": " कार्य",
    "876": "बद्दल ",
    "877": "राज्य",
    "878": "सोबत ",
    "879": "यांची ",
    "880": "जन",
    "881": "घटने",
    "882": "आहे, ",
    "883": "द्ध ",
    "884": "गळ",
    "885": "- ",
    "886": " सरकार",
    "887": "त्याच्या ",
    "888": "बद",
    "889": "षे",
    "890": "येथे ",
    "891": "भा ",
    "892": "यावर ",
    "893": "क्रि",
    "894": "डा",
    "895": "भूमि",
    "896": "जाग",
    "897": "झाल्या",
    "898": "केली ",
    "899": "तसेच ",
    "900": "जख",
    "901": "ईल.\n\n",
    "902": "वरील ",
    "903": "खी ",
    "904": "भारत ",
    "905": "स्वत",
    "906": "्रा",
    "907": "प्रकरणी ",
    "908": "सू",
    "909": "पणे ",
    "910": "मू",
    "911": "िका",
    "912": "प्रे",
    "913": "व्यक्",
    "914": "निय",
    "915": "मद",
    "916": "ुन ",
    "917": "देश ",
    "918": "स्थित ",
    "919": "दर्श",
    "920": "ज्ञा",
    "921": "मुख्यमंत्री ",
    "922": "त्यांची ",
    "923": "सध",
    "924": "अनु",
    "925": "बंद",
    "926": "ह ",
    "927": "दरम्या",
    "928": "ुकी",
    "929": "ार्थ",
    "930": "जार",
    "931": "त, ",
    "932": "श्य",
    "933": "विद्यार्थ",
    "934": "ेला ",
    "935": "बी",
    "936": "अज",
    "937": "विका",
    "938": "णात ",
    "939": "व्हि",
    "940": "झाला ",
    "941": "बु",
    "942": "मृत्य",
    "943": "आपल्याला ",
    "944": "त्यानंतर ",
    "945": "ली होती.\n\n",
    "946": "इंड",
    "947": "िंवा ",
    "948": "त्रा",
    "949": "प्रत्ये",
    "950": "याने ",
    "951": "य.\n\n",
    "952": "देवा",
    "953": "जीव",
    "954": "म्हट",
    "955": "नात ",
    "956": "ेच ",
    "957": "केंद्र",
    "958": ", क",
    "959": "चार ",
    "960": "केली.\n\n",
    "961": "मात्र, ",
    "962": "मां",
    "963": " सो",
    "964": "तया",
    "965": "लोक ",
    "966": "मत",
    "967": "काय ",
    "968": "अशा ",
    "969": "पंतप्रधान नरेंद्र मो",
    "970": "आव",
    "971": "लाव",
    "972": "निर्मा",
    "973": "आरोग",
    "974": "काँग्रे",
    "975": "उपस्थित ",
    "976": "शत",
    "977": "ल्ह",
    "978": "ंदा",
    "979": "ाराष्ट्र",
    "980": "ठिका",
    "981": "परंत",
    "982": "लक्ष",
    "983": "दू",
    "984": "!\n\n",
    "985": "बे",
    "986": "डॉ",
    "987": "पूर ",
    "988": "टे",
    "989": "लढ",
    "990": "तील",
    "991": "महत्",
    "992": "विषय",
    "993": "यामुळे ",
    "994": "त्यांचा ",
    "995": "त्यात ",
    "996": "बॉ",
    "997": "ण्यात ये",
    "998": "भी",
    "999": "शिवसे",
    "1000": "नाग",
    "1001": "ंड ",
    "1002": "तं",
    "1003": "तात ",
    "1004": "यावेळी ",
    "1005": "विज",
    "1006": "इं",
    "1007": "नग",
    "1008": "नव",
    "1009": "ण्याचे ",
    "1010": " मंत्र",
    "1011": "भर",
    "1012": "अशी ",
    "1013": "ण कर",
    "1014": "शास",
    "1015": "वरून ",
    "1016": "पद",
    "1017": "कार्य",
    "1018": "शोध",
    "1019": "ील",
    "1020": "णाऱ्या ",
    "1021": " मध्य",
    "1022": "अव",
    "1023": "डो",
    "1024": "ाला",
    "1025": "चित्रपट",
    "1026": "याचा ",
    "1027": "निर्णय ",
    "1028": "कांना ",
    "1029": "तरी ",
    "1030": "वारी ",
    "1031": "र्म",
    "1032": "झाले.\n\n",
    "1033": "पैकी ",
    "1034": "त हो",
    "1035": "अमे",
    "1036": "जिल्ह",
    "1037": "ष ",
    "1038": "पाहि",
    "1039": " केंद्र",
    "1040": "्‍",
    "1041": "आहेत ",
    "1042": "न्य",
    "1043": "अर",
    "1044": "डे",
    "1045": "अति",
    "1046": "ले होते.\n\n",
    "1047": "हु",
    "1048": "नाव",
    "1049": "च्च ",
    "1050": "ेल्",
    "1051": "टक्",
    "1052": "ये ",
    "1053": "झाली.\n\n",
    "1054": "रुग्णाल",
    "1055": "सिं",
    "1056": "वै",
    "1057": "आवश्य",
    "1058": "पाल",
    "1059": "वाद",
    "1060": "भारतीय ",
    "1061": "वृत्",
    "1062": "त्याचा ",
    "1063": "अंत",
    "1064": "से ",
    "1065": "पट",
    "1066": "एस",
    "1067": "रे ",
    "1068": "नं ",
    "1069": "वाई",
    "1070": "चं",
    "1071": "घ्या",
    "1072": "झालेल्या ",
    "1073": "विधा",
    "1074": "अद्या",
    "1075": "टर",
    "1076": "”\n\n",
    "1077": "मिळाल",
    "1078": "अमेरि",
    "1079": "करण्यात आ",
    "1080": "” ",
    "1081": "कल्",
    "1082": "स्थाप",
    "1083": " केला ",
    "1084": "त्याची ",
    "1085": "राष्ट्रीय ",
    "1086": "इंडि",
    "1087": "ऊ शक",
    "1088": "मुंबई",
    "1089": "ीय",
    "1090": "बो",
    "1091": "वास ",
    "1092": "वाद ",
    "1093": "तीत ",
    "1094": "सध्या ",
    "1095": "\"\n\n",
    "1096": "घो",
    "1097": "बस",
    "1098": "ाहे",
    "1099": "वापर",
    "1100": "टि",
    "1101": "्यांना ",
    "1102": "विध",
    "1103": "माझ्या ",
    "1104": "नवी",
    "1105": "केले ",
    "1106": "तीने ",
    "1107": "र्ध",
    "1108": "तपास",
    "1109": "झाली ",
    "1110": "नंद",
    "1111": "२०",
    "1112": "कारी ",
    "1113": "जण",
    "1114": "धो",
    "1115": "क्षे",
    "1116": "ब ",
    "1117": "शु",
    "1118": "ांत ",
    "1119": "अध्यक्ष ",
    "1120": "विरोधात ",
    "1121": "म्हणून ",
    "1122": "लव",
    "1123": " काय",
    "1124": "दोघ",
    "1125": "देण्यात आ",
    "1126": "ंप",
    "1127": "सर्वात ",
    "1128": "ंना ",
    "1129": "राज्या",
    "1130": "बै",
    "1131": "ठिकाणी ",
    "1132": "चित्रपटा",
    "1133": "गुन्हा ",
    "1134": "त्री ",
    "1135": "जा ",
    "1136": "उत्तर ",
    "1137": "आयु",
    "1138": "सह ",
    "1139": "संघ",
    "1140": "खूप ",
    "1141": "तच ",
    "1142": "१९",
    "1143": "मोर ",
    "1144": "पंतप्रधान नरेंद्र मोदी ",
    "1145": ", असे ",
    "1146": "आत्",
    "1147": "दिल्ली",
    "1148": "परा",
    "1149": "टु",
    "1150": "दाखल करण्यात आ",
    "1151": "तेव्हा ",
    "1152": "प्रि",
    "1153": "शल ",
    "1154": "स्वा",
    "1155": "बर ",
    "1156": "दृ",
    "1157": "त्याच्या",
    "1158": "की, ",
    "1159": "यहोवा",
    "1160": "वेग",
    "1161": "वादी ",
    "1162": " सर्",
    "1163": "नेते ",
    "1164": " केले.\n\n",
    "1165": "तात",
    "1166": "आहे. ",
    "1167": "्यांनी ",
    "1168": "शिवा",
    "1169": "साय",
    "1170": "इतर ",
    "1171": "बर",
    "1172": "त्यांचे ",
    "1173": " मध्ये ",
    "1174": "हव",
    "1175": "अटक",
    "1176": " केल्या",
    "1177": "खास",
    "1178": "हल्",
    "1179": "ेही ",
    "1180": "बैठ",
    "1181": "ंज",
    "1182": "ंनी ",
    "1183": "टर ",
    "1184": "दोन्ह",
    "1185": "बँ",
    "1186": "यक ",
    "1187": "माल",
    "1188": "ष्ट ",
    "1189": "दिली.\n\n",
    "1190": "पाव",
    "1191": "अड",
    "1192": "नागरि",
    "1193": "राहु",
    "1194": "दह",
    "1195": "पाकिस्तान",
    "1196": " करून ",
    "1197": "नवी ",
    "1198": "आठ",
    "1199": "निक ",
    "1200": " केली ",
    "1201": "न आणि ",
    "1202": "महाराष्ट्र",
    "1203": "प्रश्न ",
    "1204": "शू",
    "1205": "ेल्या ",
    "1206": " क्षे",
    "1207": "हिंद",
    "1208": "जखमी ",
    "1209": "मंड",
    "1210": "द्वार",
    "1211": "पुढे ",
    "1212": " केला.\n\n",
    "1213": "राहुल ",
    "1214": "वण",
    "1215": " काम",
    "1216": "लेली ",
    "1217": "पुन्हा ",
    "1218": "भाष",
    "1219": " कोण",
    "1220": "मेश्",
    "1221": "बरो",
    "1222": "भागा",
    "1223": "वेश ",
    "1224": "़्‍",
    "1225": "रक्ष",
    "1226": "सांग",
    "1227": "चौक",
    "1228": "पत्",
    "1229": "सांगितले.\n\n",
    "1230": "वळ ",
    "1231": "रू",
    "1232": "रुग्णालयात ",
    "1233": "लेला ",
    "1234": "मृत्यू ",
    "1235": "ईल",
    "1236": "ला होता.\n\n",
    "1237": "माजी ",
    "1238": "कॉ",
    "1239": "व्यक्त ",
    "1240": "शिक",
    "1241": "घटना",
    "1242": "णारे ",
    "1243": "चर्चा ",
    "1244": "पाणी ",
    "1245": "ण्यास",
    "1246": "तील.\n\n",
    "1247": "खो",
    "1248": "एम",
    "1249": "वाच",
    "1250": "दोन्ही ",
    "1251": "बां",
    "1252": "ले आहेत.\n\n",
    "1253": "च्च न्यायाल",
    "1254": "परमेश्",
    "1255": "तिक ",
    "1256": "संबंध",
    "1257": "आवड",
    "1258": "काळ",
    "1259": "आवश्यक ",
    "1260": "रुप",
    "1261": "आणि म",
    "1262": "स्पर्ध",
    "1263": "सारख",
    "1264": "ेत ",
    "1265": "भूमिका ",
    "1266": "ेलि",
    "1267": "सार ",
    "1268": "उपचार",
    "1269": "याचे ",
    "1270": "याची ",
    "1271": "आहो",
    "1272": "दहशत",
    "1273": "नां",
    "1274": " काढ",
    "1275": "याबाबत ",
    "1276": "वून ",
    "1277": "निवडणुकी",
    "1278": "तुम्हाला ",
    "1279": "काही",
    "1280": "बाहे",
    "1281": "फा",
    "1282": "ंद्र ",
    "1283": "णे",
    "1284": "आहे\n\n",
    "1285": "यांचा ",
    "1286": "साध",
    "1287": "ण्यास ",
    "1288": "फाय",
    "1289": "त्व",
    "1290": "कऱ्यां",
    "1291": "केली आहे.\n\n",
    "1292": "टाळ",
    "1293": "व्यवस्थ",
    "1294": "काँग्रेस",
    "1295": "डा ",
    "1296": "रेल्",
    "1297": "अं",
    "1298": "श्चि",
    "1299": "आम्हाला ",
    "1300": "लोक",
    "1301": "सुरू ",
    "1302": "नवीन ",
    "1303": "व्हाय",
    "1304": "मुंबई ",
    "1305": "प्रदेश",
    "1306": "गांधी ",
    "1307": "सुरु",
    "1308": "ष्ठ",
    "1309": "दुसर",
    "1310": "आज",
    "1311": "र्भ",
    "1312": "स्वतः",
    "1313": "थ ",
    "1314": "त्याचे ",
    "1315": "आणखी ",
    "1316": "ज्या",
    "1317": "पूर्ण",
    "1318": "मीडि",
    "1319": "घाल",
    "1320": "समोर ",
    "1321": "भारतीय",
    "1322": "सर्वो",
    "1323": "ओळ",
    "1324": "याला ",
    "1325": "परिष",
    "1326": "घटना ",
    "1327": "जाही",
    "1328": "यासाठी ",
    "1329": "पक्षा",
    "1330": "फि",
    "1331": "आर",
    "1332": "द्वारे ",
    "1333": "माध्य",
    "1334": "रण",
    "1335": "यश",
    "1336": "डे ",
    "1337": "च म",
    "1338": "लोकस",
    "1339": "प्रमाणे ",
    "1340": "याच्या ",
    "1341": "असल्याचे ",
    "1342": "पेक्षा ",
    "1343": " से",
    "1344": "दुस",
    "1345": "शल मीडि",
    "1346": "प्रमुख",
    "1347": "कीय ",
    "1348": "5 ",
    "1349": "गत ",
    "1350": "आहे?\n\n",
    "1351": "मार ",
    "1352": "नुक",
    "1353": "2 ",
    "1354": "प्रत्येक ",
    "1355": " करत ",
    "1356": "बन",
    "1357": "201",
    "1358": "येत",
    "1359": "मक ",
    "1360": "वार ",
    "1361": "१ ",
    "1362": ".\"\n\n",
    "1363": "बाय",
    "1364": "पत्र",
    "1365": "शब्",
    "1366": " सुरू ",
    "1367": "पी ",
    "1368": "द्धा ",
    "1369": "णार नाही.\n\n",
    "1370": "महत्त्वा",
    "1371": "नाची ",
    "1372": "खर्",
    "1373": "गरज ",
    "1374": "जवळ",
    "1375": "पं",
    "1376": "आपण",
    "1377": "ख्रि",
    "1378": "श्‍",
    "1379": "बदल",
    "1380": "\n\nया ",
    "1381": "करी ",
    "1382": "पाद",
    "1383": "नोंद",
    "1384": "बॅ",
    "1385": "झाली आहे.\n\n",
    "1386": "ची माहिती ",
    "1387": "मुलग",
    "1388": "पती ",
    "1389": "बांध",
    "1390": "विषयी ",
    "1391": "जण ",
    "1392": "न क",
    "1393": "पदा",
    "1394": "अर्",
    "1395": "आज ",
    "1396": "दुर्",
    "1397": "सै",
    "1398": "त श",
    "1399": "द्यो",
    "1400": "उमे",
    "1401": "फार",
    "1402": "खाली ",
    "1403": "एन",
    "1404": "परिस्थि",
    "1405": "उद्",
    "1406": "आपले ",
    "1407": "ूनही ",
    "1408": "भाग ",
    "1409": "क्त",
    "1410": "तंत्र",
    "1411": "विशे",
    "1412": "र्या",
    "1413": "पूर्वी ",
    "1414": "तू",
    "1415": "पंतप्रधान",
    "1416": "हळ",
    "1417": "घटनास्थ",
    "1418": "सोड",
    "1419": "लं.\n\n",
    "1420": "इच्छ",
    "1421": "उमेद",
    "1422": " कोटी ",
    "1423": "हान ",
    "1424": "५ ",
    "1425": "गं",
    "1426": "विधानस",
    "1427": "लोकांना ",
    "1428": "राम",
    "1429": " केला आहे.\n\n",
    "1430": "जास्त ",
    "1431": "दिवसां",
    "1432": "परंतु ",
    "1433": " क्र",
    "1434": "डण",
    "1435": "विरु",
    "1436": "मधून ",
    "1437": "फ ",
    "1438": "नाही, ",
    "1439": "निवडणूक ",
    "1440": "उपल",
    "1441": "उपलब्",
    "1442": "भारतात ",
    "1443": "खर",
    "1444": "िंक",
    "1445": "नाहीत.\n\n",
    "1446": "्यता ",
    "1447": "यामध्ये ",
    "1448": " काँग्रे",
    "1449": "तही ",
    "1450": "शेतकऱ्यां",
    "1451": "न्स",
    "1452": "संख",
    "1453": "झाला आहे.\n\n",
    "1454": "नंतर",
    "1455": "दिग्",
    "1456": "दरम्यान ",
    "1457": "भाव",
    "1458": "ग्रा",
    "1459": "वेळ",
    "1460": "मज",
    "1461": "ता ये",
    "1462": "ून, ",
    "1463": "कमी ",
    "1464": "अमि",
    "1465": "परिणा",
    "1466": "ट्वि",
    "1467": "ो ",
    "1468": "प्रथ",
    "1469": "अभ्या",
    "1470": "क्रम",
    "1471": "अध्यक्ष",
    "1472": "कारण ",
    "1473": "स्ट्र",
    "1474": "आनंद",
    "1475": "सरकारने ",
    "1476": "तरु",
    "1477": "9 ",
    "1478": "जाव",
    "1479": "मागणी ",
    "1480": "दिल्ली ",
    "1481": "शां",
    "1482": "बरोबर ",
    "1483": "साह",
    "1484": "टक्के ",
    "1485": "शन ",
    "1486": "निक",
    "1487": "सी ",
    "1488": "\"\"\"",
    "1489": "वेळ ",
    "1490": "हर",
    "1491": "शन",
    "1492": "ताब",
    "1493": "ब्र",
    "1494": "प्रमुख ",
    "1495": "या म",
    "1496": "इत",
    "1497": "ल्याने ",
    "1498": "जु",
    "1499": "वरा",
    "1500": "ंट",
    "1501": "क्‍",
    "1502": "दर ",
    "1503": "बहु",
    "1504": "होते",
    "1505": "दिली आहे.\n\n",
    "1506": "िंग",
    "1507": "णारा ",
    "1508": "त्याही ",
    "1509": "कळ",
    "1510": "वा.\n\n",
    "1511": "हे",
    "1512": "णार आहेत.\n\n",
    "1513": "उद",
    "1514": "कारा",
    "1515": "होतो.\n\n",
    "1516": "प्प",
    "1517": "साठी",
    "1518": "ध्",
    "1519": " काय ",
    "1520": "निर्माण ",
    "1521": "म्हणाले.\n\n",
    "1522": "न्यात ",
    "1523": "नाच्या ",
    "1524": "भाजप ",
    "1525": "रस्",
    "1526": "गाव",
    "1527": "तार",
    "1528": "ेली ",
    "1529": "पर्या",
    "1530": "भारत",
    "1531": "चो",
    "1532": "खेळ",
    "1533": "मात ",
    "1534": "घात",
    "1535": "व्या ",
    "1536": "आघा",
    "1537": "प्रशास",
    "1538": "मार्ग",
    "1539": "तम ",
    "1540": "ंदर्भ",
    "1541": "ंचा ",
    "1542": "समावेश ",
    "1543": "असलेल्या ",
    "1544": "माण",
    "1545": "बल",
    "1546": "मोठा ",
    "1547": "झाले आहेत.\n\n",
    "1548": "कांनी ",
    "1549": "जगा",
    "1550": "लेख",
    "1551": "याप्रकरणी ",
    "1552": "घोष",
    "1553": "केला ",
    "1554": "धु",
    "1555": "अभिने",
    "1556": "केत ",
    "1557": "लक्ष ",
    "1558": "किंवा ",
    "1559": "श्री",
    "1560": "रातील ",
    "1561": "पावसा",
    "1562": "फडण",
    "1563": "फडणवी",
    "1564": "तक्र",
    "1565": "तल्या ",
    "1566": "ओळख",
    "1567": "बंग",
    "1568": "आरोपी",
    "1569": "टुंब",
    "1570": "दौ",
    "1571": "स्थान",
    "1572": "ठाकर",
    "1573": "एफ",
    "1574": " काळ",
    "1575": "बैठकी",
    "1576": "तीच्या ",
    "1577": "ता.\n\n",
    "1578": "लां",
    "1579": "आधार",
    "1580": "सळ",
    "1581": "सुद्धा ",
    "1582": "२ ",
    "1583": "पाच ",
    "1584": "वू",
    "1585": "आपली ",
    "1586": "भर ",
    "1587": "क, ",
    "1588": "केले.\n\n",
    "1589": "आणि स",
    "1590": "सर्वा",
    "1591": "सव",
    "1592": "का?\n\n",
    "1593": "अहव",
    "1594": "गृ",
    "1595": "येशू",
    "1596": "आयुष",
    "1597": "प्रयत्न",
    "1598": "भागात ",
    "1599": "गंभी",
    "1600": "पूर",
    "1601": "ले जा",
    "1602": "उपस्थित होते.\n\n",
    "1603": " केली आहे.\n\n",
    "1604": "फोटो",
    "1605": "डिओ",
    "1606": "मोठ्या ",
    "1607": " किंवा ",
    "1608": "पार",
    "1609": "कल्प",
    "1610": "क्षि",
    "1611": "तिला ",
    "1612": "झा",
    "1613": "येथ",
    "1614": "या घटने",
    "1615": "्यु",
    "1616": "ायला ",
    "1617": "परिस",
    "1618": "आर्थ",
    "1619": "दृष्ट",
    "1620": "देव",
    "1621": "ण्याच्या ",
    "1622": "नीही ",
    "1623": "जवा",
    "1624": "मन ",
    "1625": "कांच्या ",
    "1626": "तं.\n\n",
    "1627": "आंत",
    "1628": "पाट",
    "1629": "सरकार ",
    "1630": "तीचे ",
    "1631": "प्रक्रि",
    "1632": "नुसार ",
    "1633": "जवळ ",
    "1634": "लग्",
    "1635": "द्र",
    "1636": "ऐक",
    "1637": "आई",
    "1638": "हाय",
    "1639": "— ",
    "1640": "वडि",
    "1641": "साव",
    "1642": "' ",
    "1643": "्यांच्या ",
    "1644": "राहि",
    "1645": "अतिश",
    "1646": "ंच्या ",
    "1647": "भ ",
    "1648": "आमच्या ",
    "1649": "तसं",
    "1650": "योग्य ",
    "1651": "भेट ",
    "1652": "सेवा ",
    "1653": "वे लाग",
    "1654": "नाव ",
    "1655": "उद्यो",
    "1656": "विध ",
    "1657": "असते.\n\n",
    "1658": "थो",
    "1659": "हज",
    "1660": "देशात ",
    "1661": "अद्याप ",
    "1662": "आंतर",
    "1663": "माझ्या",
    "1664": "त\n\n",
    "1665": "टाक",
    "1666": "ध्या",
    "1667": "मिक ",
    "1668": "माह",
    "1669": "व्हायर",
    "1670": "सग",
    "1671": "ताब्यात ",
    "1672": "जय ",
    "1673": "धाव",
    "1674": "ांवर ",
    "1675": ":\n\n",
    "1676": "फु",
    "1677": "मन",
    "1678": "खूप",
    "1679": "केल्या",
    "1680": "परी",
    "1681": "ाली ",
    "1682": "सात ",
    "1683": "होत ",
    "1684": "धिक ",
    "1685": "प्रकरणा",
    "1686": "्ये",
    "1687": "ंदर्भात ",
    "1688": "सुधार",
    "1689": "दान ",
    "1690": "इस",
    "1691": "त्य ",
    "1692": "घर",
    "1693": "विविध ",
    "1694": "सामना ",
    "1695": "्यातील ",
    "1696": "यांचे ",
    "1697": "करून ",
    "1698": "जाहीर",
    "1699": "फर",
    "1700": "तुमच्या ",
    "1701": "उत्पाद",
    "1702": " मी ",
    "1703": "वळ",
    "1704": "गेल्या ",
    "1705": "केवळ ",
    "1706": "स्ट ",
    "1707": " आणि ",
    "1708": "दिली ",
    "1709": "मोदी ",
    "1710": "गर्",
    "1711": "ू न",
    "1712": "घरी ",
    "1713": "ंदि",
    "1714": "भारताने ",
    "1715": "जिंक",
    "1716": "हार",
    "1717": "लोकसभा ",
    "1718": "िंग ",
    "1719": "ताच ",
    "1720": "घरा",
    "1721": "धार ",
    "1722": "था",
    "1723": "रेल्वे ",
    "1724": "तीला ",
    "1725": " कमी ",
    "1726": "नेह",
    "1727": "असं ",
    "1728": "चल",
    "1729": "विश्‍",
    "1730": "वा लाग",
    "1731": "आधी ",
    "1732": "समज",
    "1733": "नव्हती",
    "1734": "नेता ",
    "1735": "प्रशिक्ष",
    "1736": "त्यावर ",
    "1737": "तिच्या ",
    "1738": "ठो",
    "1739": "अमेरिके",
    "1740": "कुठ",
    "1741": "ले नाही.\n\n",
    "1742": "नेम",
    "1743": "नाने ",
    "1744": "जाण",
    "1745": "अधिका",
    "1746": "आहोत.\n\n",
    "1747": "खु",
    "1748": "वेश",
    "1749": "एकत्र ",
    "1750": "ष्ठ ",
    "1751": "देवे",
    "1752": "पार्",
    "1753": "परमेश्वरा",
    "1754": "शल मीडियावर ",
    "1755": "च, ",
    "1756": "प्रो",
    "1757": "एल",
    "1758": "सगळ",
    "1759": "गे",
    "1760": "चौकशी ",
    "1761": "घटनास्थळी ",
    "1762": "7 ",
    "1763": "ल्यानंतर ",
    "1764": "गंभीर ",
    "1765": "संघा",
    "1766": "असेही ",
    "1767": " का ",
    "1768": "श्मी",
    "1769": "लाख ",
    "1770": "मुळ",
    "1771": "देत ",
    "1772": "घेऊन ",
    "1773": "पुरव",
    "1774": "छा",
    "1775": "पणा",
    "1776": "माध्यमा",
    "1777": " मला ",
    "1778": "आपला ",
    "1779": "उपा",
    "1780": " मे",
    "1781": "पॅ",
    "1782": "३ ",
    "1783": "दस",
    "1784": "जय",
    "1785": "टॉ",
    "1786": "राज्यात ",
    "1787": "ुरु",
    "1788": "आर्थिक ",
    "1789": "संशोध",
    "1790": "विश्वास ",
    "1791": "होईल.\n\n",
    "1792": "मागे ",
    "1793": "गृह",
    "1794": "आढ",
    "1795": "4 ",
    "1796": "वच",
    "1797": "पराभ",
    "1798": "त्रात ",
    "1799": "चीन",
    "1800": "मरा",
    "1801": "लं आहे.\n\n",
    "1802": "गी ",
    "1803": "विधानसभा ",
    "1804": "आणि क",
    "1805": "कधी",
    "1806": "सल",
    "1807": "वर्षी ",
    "1808": "तां",
    "1809": "स, ",
    "1810": "चित्रपटात ",
    "1811": "बार",
    "1812": "राख",
    "1813": "शास्त्र",
    "1814": "्याल",
    "1815": "स्ती ",
    "1816": "योजना ",
    "1817": "मदत ",
    "1818": "भाजपचे ",
    "1819": "जन ",
    "1820": "केला.\n\n",
    "1821": "देवेंद्र ",
    "1822": "देवेंद्र फडणवी",
    "1823": " केले आहे.\n\n",
    "1824": "विजय",
    "1825": "केट",
    "1826": "चित ",
    "1827": "संपूर्ण ",
    "1828": "तरी",
    "1829": "ड्",
    "1830": "ित कर",
    "1831": "झाले होते.\n\n",
    "1832": "काळ ",
    "1833": "झो",
    "1834": "शक्यता ",
    "1835": "वानग",
    "1836": "तुझ",
    "1837": "पहिल्या ",
    "1838": " केली.\n\n",
    "1839": "दाखल ",
    "1840": "पुरस्",
    "1841": "गेले ",
    "1842": "मतदार",
    "1843": "शाळ",
    "1844": "आंद",
    "1845": "आंदोल",
    "1846": "उल्",
    "1847": "अद्याप",
    "1848": "गार",
    "1849": "तावर",
    "1850": "लंड",
    "1851": "ूक",
    "1852": "स्ट्रेलि",
    "1853": "णारी ",
    "1854": "लॉ",
    "1855": "व्हिडिओ",
    "1856": "मान्य",
    "1857": "स्वच्छ",
    "1858": "राजकीय ",
    "1859": "वं",
    "1860": "8 ",
    "1861": "टा ",
    "1862": "विरुद्ध ",
    "1863": "नगर",
    "1864": "पद्ध",
    "1865": "कम",
    "1866": "जात आहे.\n\n",
    "1867": "न्य ",
    "1868": "आरोग्य",
    "1869": "ीच्या ",
    "1870": "प्रकारे ",
    "1871": "भारताच्या ",
    "1872": "तीही ",
    "1873": "जर ",
    "1874": "प्रवास",
    "1875": " कॉ",
    "1876": "ीने ",
    "1877": "पोहो",
    "1878": "वढ",
    "1879": "णाऱ्‍",
    "1880": "ा, ",
    "1881": "कंप",
    "1882": "्याच्या ",
    "1883": "त्मक ",
    "1884": "तयार",
    "1885": "सुरू",
    "1886": "ठाकरे ",
    "1887": "सत्",
    "1888": "प्रत्य",
    "1889": "वत ",
    "1890": "परिणाम ",
    "1891": " मिळाल",
    "1892": "गांधी",
    "1893": "झाले आहे.\n\n",
    "1894": "मुली",
    "1895": "काल",
    "1896": "गुंत",
    "1897": " मह",
    "1898": "ऑस्ट्रेलि",
    "1899": "अभिनेत्री ",
    "1900": "अधिकारी ",
    "1901": "८ ",
    "1902": "प्त ",
    "1903": "शिवाय ",
    "1904": "पोलिस ",
    "1905": "ईल ",
    "1906": "म्हणजे ",
    "1907": "ंची ",
    "1908": "पाहिज",
    "1909": "फक्त ",
    "1910": "स्पष्ट",
    "1911": "आहे आणि ",
    "1912": "िने",
    "1913": "बल ",
    "1914": "), ",
    "1915": "अॅ",
    "1916": "बू",
    "1917": "उदाह",
    "1918": "रण ",
    "1919": "वादा",
    "1920": "दरम्यान, ",
    "1921": " करण्यासाठी ",
    "1922": "जागतिक ",
    "1923": "नाचा ",
    "1924": "पास ",
    "1925": "घेतली.\n\n",
    "1926": "अमित श",
    "1927": " मोठ",
    "1928": "गरजे",
    "1929": "बाज",
    "1930": "ब्रि",
    "1931": "निश्चि",
    "1932": "नव्हती.\n\n",
    "1933": "ला नाही.\n\n",
    "1934": "अभिनेता ",
    "1935": "त्यासाठी ",
    "1936": "शेव",
    "1937": "गोष्ट ",
    "1938": "नावर ",
    "1939": "होते ",
    "1940": "ये.\n\n",
    "1941": "वातावर",
    "1942": "आनंद ",
    "1943": "६ ",
    "1944": "संरक्ष",
    "1945": "त्रि",
    "1946": "पव",
    "1947": "च्या क",
    "1948": "त्या.\n\n",
    "1949": "आयोज",
    "1950": "( ",
    "1951": "ज्ञान ",
    "1952": ", अशी ",
    "1953": "अत्य",
    "1954": "हून ",
    "1955": "दला",
    "1956": "परंतु",
    "1957": "प्रसि",
    "1958": "देशातील ",
    "1959": "पण, ",
    "1960": "स्टे",
    "1961": "तिहा",
    "1962": " कराय",
    "1963": "टीव्ह",
    "1964": "र्गत ",
    "1965": "गेल्या",
    "1966": "व्यक्‍",
    "1967": "शं",
    "1968": "सामा",
    "1969": "पोहोच",
    "1970": "नाला ",
    "1971": "पाठव",
    "1972": "विद्यापी",
    "1973": "म्हणाले ",
    "1974": "राज्य सरकार",
    "1975": "आहे.\n\nया ",
    "1976": "त्यावेळी ",
    "1977": "ूण ",
    "1978": "शिवसेने",
    "1979": "इतर",
    "1980": "आत्मह",
    "1981": "ांड",
    "1982": "आंतरराष्ट्रीय ",
    "1983": "णीही ",
    "1984": "चित्रपट ",
    "1985": "जोर",
    "1986": "00 ",
    "1987": "च.\n\n",
    "1988": "सुनाव",
    "1989": "गाय",
    "1990": "रोजी ",
    "1991": "राहुल गांधी ",
    "1992": "्यू",
    "1993": "गोष्टी",
    "1994": "नावा",
    "1995": "कू",
    "1996": " म्हणजे ",
    "1997": "अत्यंत ",
    "1998": "ीन ",
    "1999": "1 ",
    "2000": "त्व ",
    "2001": "कट",
    "2002": "पुस्त",
    "2003": "नव्हते.\n\n",
    "2004": "२०१",
    "2005": "ृत्य",
    "2006": "जेव्हा ",
    "2007": "सर्वाधिक ",
    "2008": ". ”\n\n",
    "2009": "बॉलि",
    "2010": "घेतला.\n\n",
    "2011": "क आणि ",
    "2012": "वस्त",
    "2013": "-(",
    "2014": "णि",
    "2015": "पर्",
    "2016": "राट",
    "2017": "जबाब",
    "2018": "स्वी",
    "2019": "दिले.\n\n",
    "2020": "क क",
    "2021": "न्यू",
    "2022": "डून ",
    "2023": "वाढ ",
    "2024": "चे अध्यक्ष ",
    "2025": "शील ",
    "2026": "पूर्व",
    "2027": "हॉ",
    "2028": "न\n\n",
    "2029": "गड",
    "2030": "अभ्यास",
    "2031": "वे.\n\n",
    "2032": "ांसाठी ",
    "2033": "लंब",
    "2034": "पुढील ",
    "2035": "लहान ",
    "2036": "वेळा ",
    "2037": "भूत ",
    "2038": "्र ",
    "2039": "दै",
    "2040": "दिग्दर्श",
    "2041": "नं",
    "2042": "प्रमाणात ",
    "2043": "ला जा",
    "2044": "निर्मि",
    "2045": "विरोधी ",
    "2046": "्यावर ",
    "2047": "बघ",
    "2048": "दिवशी ",
    "2049": "3 ",
    "2050": "वर्त",
    "2051": " म्हणाल",
    "2052": "विकास",
    "2053": " सर्व",
    "2054": "दिवस ",
    "2055": "येथील ",
    "2056": "बॉलिवू",
    "2057": "विभागा",
    "2058": "हवा",
    "2059": ": “",
    "2060": "गी",
    "2061": "उपलब्ध ",
    "2062": "भागी ",
    "2063": "संस्थ",
    "2064": "अपघा",
    "2065": "उत्तर",
    "2066": "देत",
    "2067": "बाळ",
    "2068": "नच्या ",
    "2069": "गोष्टी ",
    "2070": "विकास ",
    "2071": "शर्",
    "2072": "्याने ",
    "2073": "लवकर",
    "2074": " म्हणून ",
    "2075": "कृती ",
    "2076": "गुंतवण",
    "2077": "20 ",
    "2078": "यन ",
    "2079": "माध्यमातून ",
    "2080": "म्हटले आहे.\n\n",
    "2081": "ने, ",
    "2082": "व्हायरल ",
    "2083": "ज्या ",
    "2084": "युक्त ",
    "2085": "अखे",
    "2086": "डॉक्",
    "2087": "प्रयत्न कर",
    "2088": "आहेत, ",
    "2089": "क्रम ",
    "2090": "व्यवस्था ",
    "2091": "कल",
    "2092": "वडिल",
    "2093": " मंत्री ",
    "2094": "आता",
    "2095": "पाहिजे.\n\n",
    "2096": "असा",
    "2097": "होत आहे.\n\n",
    "2098": "दाखव",
    "2099": "प्रभा",
    "2100": "तिचा ",
    "2101": "आढळ",
    "2102": "विमान",
    "2103": "शेअर",
    "2104": "डू",
    "2105": "अजूनही ",
    "2106": "ू लाग",
    "2107": "ांब",
    "2108": "षी ",
    "2109": "सर्वोच्च न्यायाल",
    "2110": " सिं",
    "2111": "गुज",
    "2112": "पथ",
    "2113": "ीचा ",
    "2114": " करुन ",
    "2115": "गाने ",
    "2116": "ंबर ",
    "2117": "स्वर",
    "2118": "ण, ",
    "2119": "परवानग",
    "2120": "कांत ",
    "2121": "डीने ",
    "2122": "आहे की ",
    "2123": "उद्ध",
    "2124": "राज्यातील ",
    "2125": "फ्",
    "2126": "रुपये ",
    "2127": "हजार ",
    "2128": "शिवसेना ",
    "2129": "टन ",
    "2130": "प्रार्थ",
    "2131": "भारताचा ",
    "2132": "रोहि",
    "2133": "मग ",
    "2134": "मोठे ",
    "2135": "आव्हा",
    "2136": "– ",
    "2137": "आवश्यक आहे.\n\n",
    "2138": "वेगळ",
    "2139": "मंडळा",
    "2140": "यानंतर ",
    "2141": "माहीत ",
    "2142": "ह्या ",
    "2143": "जोरदार ",
    "2144": "होऊ शक",
    "2145": " महि",
    "2146": "तिच्या",
    "2147": "काढ",
    "2148": "जन्",
    "2149": "केली होती.\n\n",
    "2150": "झाला होता.\n\n",
    "2151": "या चित्रपटा",
    "2152": "खालील ",
    "2153": "नेतृ",
    "2154": "सुरुवात ",
    "2155": "ले, ",
    "2156": "त करण्यात आ",
    "2157": "मै",
    "2158": "४ ",
    "2159": "बाहेर ",
    "2160": "पाटील ",
    "2161": "कोणत्याही ",
    "2162": "बा ",
    "2163": "विशेष ",
    "2164": "ट्रम्",
    "2165": "अन्",
    "2166": "नेट",
    "2167": "फल",
    "2168": "कीय",
    "2169": "करि",
    "2170": "भि",
    "2171": "ण्याची गरज ",
    "2172": "ं.\n\n",
    "2173": "तू ",
    "2174": "तत्",
    "2175": "बाहेर",
    "2176": "याद",
    "2177": "ऑफ ",
    "2178": "त्यांच्यावर ",
    "2179": "समस",
    "2180": "मुख्य ",
    "2181": "लिहि",
    "2182": "ंग्रे",
    "2183": "मारे ",
    "2184": "चारी ",
    "2185": "ना, ",
    "2186": "संदर्भात ",
    "2187": "सौ",
    "2188": "नुकसा",
    "2189": "विराट",
    "2190": "नियम",
    "2191": "समावेश आहे.\n\n",
    "2192": "इस्रा",
    "2193": "या सर्",
    "2194": "पाऊ",
    "2195": "त आ",
    "2196": "पहिला ",
    "2197": "‘ ",
    "2198": "काँग्रेस ",
    "2199": "सामन्यात ",
    "2200": "मराठ",
    "2201": "वेद",
    "2202": "निवडणुकीत ",
    "2203": "पती",
    "2204": "ो.\n\n",
    "2205": "लवकरच ",
    "2206": "त नाही",
    "2207": "राज्य ",
    "2208": "्यांची ",
    "2209": "राष्ट्रपती ",
    "2210": "ट्रम्प ",
    "2211": "दहशतवादी ",
    "2212": "जल",
    "2213": "जाते.\n\n",
    "2214": "इथे ",
    "2215": "यावर",
    "2216": "्याला ",
    "2217": "ध्यक्ष ",
    "2218": "अतिशय ",
    "2219": "लष्",
    "2220": "मंज",
    "2221": "सचि",
    "2222": "बजाव",
    "2223": "देवेंद्र फडणवीस ",
    "2224": "तेथे ",
    "2225": "चाही ",
    "2226": "असं",
    "2227": "क्स",
    "2228": "करता ",
    "2229": "असेल.\n\n",
    "2230": "केलेल्या ",
    "2231": "ही",
    "2232": "चे मुख्यमंत्री ",
    "2233": "दूर",
    "2234": "अनुभ",
    "2235": "फार ",
    "2236": "यंत्र",
    "2237": "ंचे ",
    "2238": "वाढव",
    "2239": "दिलेल्या ",
    "2240": "गती ",
    "2241": "नुष",
    "2242": "काम ",
    "2243": "गामी ",
    "2244": "दुसऱ्या ",
    "2245": "नाचे ",
    "2246": "गौ",
    "2247": "परिस्थिती ",
    "2248": "कराय",
    "2249": " क्ष",
    "2250": "हिंदु",
    "2251": "कॅ",
    "2252": "हजार",
    "2253": "थे",
    "2254": "जोड",
    "2255": "स्थान ",
    "2256": "सेव",
    "2257": "आमदार ",
    "2258": "सारखे ",
    "2259": "मोदी",
    "2260": "करण्यासाठी ",
    "2261": "देव ",
    "2262": "वाय",
    "2263": "पसर",
    "2264": "होणार आहे.\n\n",
    "2265": "व्यवस्थाप",
    "2266": "विकासा",
    "2267": "धर",
    "2268": "गोळी",
    "2269": "राजी",
    "2270": "गुन्हा दाखल",
    "2271": "पळ",
    "2272": "6 ",
    "2273": "होत्या.\n\n",
    "2274": "गेले.\n\n",
    "2275": "दिले ",
    "2276": "श्मीर",
    "2277": "हात ",
    "2278": "ल्याचे ",
    "2279": "खासदार ",
    "2280": "पृ",
    "2281": "्ड ",
    "2282": "पर ",
    "2283": "पूर्वी",
    "2284": "चंद्र",
    "2285": "इतिहा",
    "2286": "ी\n\n",
    "2287": "मॅ",
    "2288": "लक्षात ",
    "2289": " का?\n\n",
    "2290": "ला, ",
    "2291": "कधी ",
    "2292": "जागा ",
    "2293": "ॉर्",
    "2294": " सुरू",
    "2295": "आरोप",
    "2296": "ड्र",
    "2297": "दिला.\n\n",
    "2298": "हार ",
    "2299": "संबंध ",
    "2300": "कता ",
    "2301": "सहभागी ",
    "2302": "मता ",
    "2303": "टका ",
    "2304": "लो ",
    "2305": "माझी ",
    "2306": "न्यायालयाने ",
    "2307": "आमच्या",
    "2308": ")\n\n",
    "2309": "प्रका",
    "2310": "भाजपने ",
    "2311": " कुटुंब",
    "2312": "चना ",
    "2313": "एकूण ",
    "2314": "ल्या आहेत.\n\n",
    "2315": "वी लाग",
    "2316": "स्पर्धे",
    "2317": "हल्ल्या",
    "2318": "विद्यार्थी ",
    "2319": " कारण ",
    "2320": "काने ",
    "2321": "जम्",
    "2322": "तयार ",
    "2323": "तीव",
    "2324": "ंडा",
    "2325": "खरे",
    "2326": "महिला ",
    "2327": "शक्य ",
    "2328": "फ्र",
    "2329": "मुलगा ",
    "2330": ", की ",
    "2331": "विंद",
    "2332": "निघ",
    "2333": "कोण ",
    "2334": "पार ",
    "2335": "पेक्ष",
    "2336": "लाख",
    "2337": "ऊ न",
    "2338": "मुख्यमंत्र",
    "2339": "तसेच",
    "2340": "अक्ष",
    "2341": "गिरी ",
    "2342": "ंदा ",
    "2343": "दक्षि",
    "2344": "फलंदा",
    "2345": " सी",
    "2346": "होईल",
    "2347": "उच्च न्यायाल",
    "2348": "इंग्",
    "2349": "्या आहेत.\n\n",
    "2350": "एखा",
    "2351": "मत्",
    "2352": "देवाच्या ",
    "2353": "एकमे",
    "2354": "पहिल्या",
    "2355": "खान ",
    "2356": "संख्या ",
    "2357": "पुन",
    "2358": "गण",
    "2359": "राव",
    "2360": "वक्त",
    "2361": "रवि",
    "2362": "मल",
    "2363": "नाट",
    "2364": "सोटी ",
    "2365": "माझे ",
    "2366": "सामाजि",
    "2367": "ऊर्",
    "2368": "बी ",
    "2369": " करा.\n\n",
    "2370": "णे, ",
    "2371": " महा",
    "2372": "योजने",
    "2373": "मृत्यू",
    "2374": "दारी ",
    "2375": " कारवाई",
    "2376": "बायबल",
    "2377": "वाहत",
    "2378": "वाहतूक ",
    "2379": "नव्या ",
    "2380": "षण ",
    "2381": "अडच",
    "2382": "साद",
    "2383": "तेल",
    "2384": "अजून ",
    "2385": "असतात.\n\n",
    "2386": "जगातील ",
    "2387": "वातावरण ",
    "2388": "वान ",
    "2389": "ीची ",
    "2390": "गोल",
    "2391": "सिंह ",
    "2392": " क्रमां",
    "2393": "ल्या.\n\n",
    "2394": "नवी दिल्ली",
    "2395": "केले आहे.\n\n",
    "2396": "हू",
    "2397": "हाता",
    "2398": "क्षक ",
    "2399": "सहा ",
    "2400": "विभाग",
    "2401": "हन",
    "2402": "्यांचा ",
    "2403": "यू",
    "2404": "काम कर",
    "2405": "कांची ",
    "2406": "विवाह",
    "2407": "इन्",
    "2408": "अट",
    "2409": "मान्य ",
    "2410": "केला आहे.\n\n",
    "2411": " मिळव",
    "2412": "निमि",
    "2413": "मोठी ",
    "2414": "केंद्रीय",
    "2415": "बद्दल",
    "2416": "सीसी",
    "2417": "जणांचा ",
    "2418": "गुन्हा दाखल करण्यात आ",
    "2419": "या प्रकरणा",
    "2420": "बॉलिवूड",
    "2421": "१०",
    "2422": "म, ",
    "2423": "गुण",
    "2424": "नाल",
    "2425": "तर, ",
    "2426": "तिथ",
    "2427": "तुल",
    "2428": "कं",
    "2429": "रंग",
    "2430": "थांब",
    "2431": "सभे",
    "2432": "ंग ",
    "2433": "प्रस्ता",
    "2434": "दुसरा ",
    "2435": "म्हणून",
    "2436": "नार",
    "2437": "चांगली ",
    "2438": "इन ",
    "2439": "पंतप्रधानांनी ",
    "2440": "वर्षां",
    "2441": "तिने ",
    "2442": "्यांचे ",
    "2443": "घेण्यात आ",
    "2444": "आगामी ",
    "2445": "हत्या",
    "2446": "ण्याची शक्यता ",
    "2447": "जीवन ",
    "2448": "या प्रकरणी ",
    "2449": "टप्प",
    "2450": " क्षेत्रात ",
    "2451": "राष्ट्रवादी ",
    "2452": "पुणे ",
    "2453": "मत ",
    "2454": "बाजार",
    "2455": "समि",
    "2456": "णं ",
    "2457": " काँग्रेस",
    "2458": "असेल ",
    "2459": "बला",
    "2460": "क्ती ",
    "2461": "बळ",
    "2462": "मूल",
    "2463": "अर्थ ",
    "2464": "बात",
    "2465": "तुमच्या",
    "2466": "माझा ",
    "2467": "डीओ",
    "2468": "सारख्या ",
    "2469": "दर्शि",
    "2470": " मार्",
    "2471": "सल्",
    "2472": "काळी ",
    "2473": "सन्",
    "2474": "चाच",
    "2475": " की ",
    "2476": "चे आहे.\n\n",
    "2477": "शब्द",
    "2478": "आठवड",
    "2479": "होणार ",
    "2480": "यं",
    "2481": "शिक्षण ",
    "2482": "च्च",
    "2483": "दहशतवाद",
    "2484": "नवी दिल्ली ",
    "2485": "प्रकल्",
    "2486": "ार्व",
    "2487": "्यांमध्ये ",
    "2488": "लाच ",
    "2489": " केली होती.\n\n",
    "2490": "निमित्",
    "2491": "ून आ",
    "2492": "प्रश्न",
    "2493": "राजकार",
    "2494": "लाई",
    "2495": "आश्",
    "2496": "कात ",
    "2497": "आतापर्यंत ",
    "2498": "म्हटले ",
    "2499": "तक्रार",
    "2500": "पश्चि",
    "2501": "सदस",
    "2502": "ता, ",
    "2503": "न्याय",
    "2504": "मृत",
    "2505": "या सिने",
    "2506": "ालि",
    "2507": "पौ",
    "2508": "कोणतीही ",
    "2509": "अग्",
    "2510": "शेतकरी ",
    "2511": "भो",
    "2512": "खा ",
    "2513": "नकार ",
    "2514": " संघ",
    "2515": "प्रचार",
    "2516": "याचि",
    "2517": "सुमारे ",
    "2518": "ताप",
    "2519": "ुरू",
    "2520": "ठाण्यात ",
    "2521": "तरुण ",
    "2522": " सिंह ",
    "2523": "विद्य",
    "2524": "..",
    "2525": "क्रमा",
    "2526": "नुकसान ",
    "2527": "अग",
    "2528": "शिकव",
    "2529": "संवाद ",
    "2530": "ते, ",
    "2531": "मनो",
    "2532": "चांगले ",
    "2533": "प्रश्‍",
    "2534": "राम ",
    "2535": "कारवाई",
    "2536": "शरी",
    "2537": "विस्",
    "2538": "ः ",
    "2539": "प्रयत्न ",
    "2540": "सुरु ",
    "2541": "उद्धव ",
    "2542": "ते म्हणाले.\n\n",
    "2543": "नांना ",
    "2544": "०० ",
    "2545": "प्रथम ",
    "2546": " काँग्रेस ",
    "2547": "्याची ",
    "2548": "ण्यात येत आहे.\n\n",
    "2549": "टील",
    "2550": "तयारी ",
    "2551": "पाठिं",
    "2552": "सिने",
    "2553": "? ",
    "2554": "शब्द ",
    "2555": "अल्",
    "2556": "भरात ",
    "2557": "लेला नाही.\n\n",
    "2558": "संजय ",
    "2559": "ुरी ",
    "2560": "घोषणा ",
    "2561": "माव",
    "2562": " काही",
    "2563": " सुरु",
    "2564": "महत्वा",
    "2565": "कावर ",
    "2566": "संबंधित ",
    "2567": "मंदि",
    "2568": "ार्‍",
    "2569": "टीका ",
    "2570": "पद्धतीने ",
    "2571": "करणे ",
    "2572": "या मु",
    "2573": "बैठकीत ",
    "2574": "राज ",
    "2575": "ठार",
    "2576": "इथ",
    "2577": "राष्ट्रीय",
    "2578": "औष",
    "2579": "फेटाळ",
    "2580": "भाजपा",
    "2581": "द्या ",
    "2582": " मंत्राल",
    "2583": "पन्",
    "2584": "प्रवेश",
    "2585": "बदल ",
    "2586": "जो ",
    "2587": "कसे ",
    "2588": "नगर ",
    "2589": "अंतर्गत ",
    "2590": "वाने ",
    "2591": "उभ",
    "2592": "चर",
    "2593": "रद्द",
    "2594": "एप्रि",
    "2595": "जखमी",
    "2596": "निषे",
    "2597": "करण",
    "2598": "नव्हता.\n\n",
    "2599": " कुमार ",
    "2600": "शांत",
    "2601": "शोध ",
    "2602": "ज्ये",
    "2603": "कर्ण",
    "2604": "नक्",
    "2605": "विशेष",
    "2606": "बर्",
    "2607": "करण ",
    "2608": "उत्तम ",
    "2609": "खर ",
    "2610": "रिक्त ",
    "2611": " कर्म",
    "2612": "करणा",
    "2613": "पाहिजे",
    "2614": "पात",
    "2615": "तो, ",
    "2616": "ाह ",
    "2617": "सादर",
    "2618": "्यासाठी ",
    "2619": "लॅ",
    "2620": " मद",
    "2621": "ठी",
    "2622": " काळात ",
    "2623": "स्पष्ट ",
    "2624": "वादी",
    "2625": "प्रार्थना ",
    "2626": "त्याच",
    "2627": "नियंत्र",
    "2628": "तपास कर",
    "2629": "\"\" ",
    "2630": "काहीही ",
    "2631": " कोह",
    "2632": "त्यामुळ",
    "2633": "विधे",
    "2634": "तीची ",
    "2635": "वरुन ",
    "2636": "तिथे ",
    "2637": "ख्रिस्ती ",
    "2638": "परिषदे",
    "2639": "राजा ",
    "2640": "वंत ",
    "2641": "आधी",
    "2642": "य, ",
    "2643": "गुजरा",
    "2644": "करी",
    "2645": "हून अधिक ",
    "2646": "शहरा",
    "2647": "नासाठी ",
    "2648": "विचार ",
    "2649": "२० ",
    "2650": "खि",
    "2651": "निरा",
    "2652": "मीन ",
    "2653": "९ ",
    "2654": "या, ",
    "2655": "ऑन",
    "2656": "गिक ",
    "2657": " कुमार",
    "2658": "उमेदवार",
    "2659": "इंडिया ",
    "2660": "ताही ",
    "2661": "ा आणि ",
    "2662": "आरोप ",
    "2663": "ट्स",
    "2664": "भारतातील ",
    "2665": "पां",
    "2666": "विचार कर",
    "2667": "’\n\n",
    "2668": "समोर आ",
    "2669": "पुरा",
    "2670": "था ",
    "2671": "विजय ",
    "2672": "मार्गा",
    "2673": "क्या ",
    "2674": "खेळा",
    "2675": "नाथ",
    "2676": " संघा",
    "2677": "चीन ",
    "2678": "आठव",
    "2679": "किती ",
    "2680": "अंदा",
    "2681": "in",
    "2682": "पदार्थ",
    "2683": "काच्या ",
    "2684": "आघाडी",
    "2685": "र्स",
    "2686": "असून, ",
    "2687": "७ ",
    "2688": "अगदी ",
    "2689": "म्हणाले की, ",
    "2690": "भु",
    "2691": "या क",
    "2692": "स्वरू",
    "2693": "तीचा ",
    "2694": " केलेल्या ",
    "2695": "साद ",
    "2696": "शहर",
    "2697": "अनेक",
    "2698": "ाचे ",
    "2699": "काळजी ",
    "2700": "े\n\n",
    "2701": "आग ",
    "2702": "ीचे ",
    "2703": " मुख",
    "2704": "पत्र ",
    "2705": "पवि",
    "2706": "कांचे ",
    "2707": "प्रच",
    "2708": "राष्ट्रवादी",
    "2709": "ले. ",
    "2710": "उं",
    "2711": "कर, ",
    "2712": "्या क",
    "2713": "जारी ",
    "2714": "जम्मू",
    "2715": "पक्ष ",
    "2716": "बनव",
    "2717": "े आणि ",
    "2718": "ूर ",
    "2719": "करण्या",
    "2720": "विराट कोह",
    "2721": "ण आ",
    "2722": "जम",
    "2723": "रुग्णालयात दाखल करण्यात आ",
    "2724": "पकड",
    "2725": "ंगा",
    "2726": "निध",
    "2727": "व्हिडीओ",
    "2728": "जाणून ",
    "2729": "ाच्या ",
    "2730": "शांत ",
    "2731": "जरी",
    "2732": "राजीना",
    "2733": "तसा ",
    "2734": " क्षेत्रा",
    "2735": "प्रवा",
    "2736": "िका ",
    "2737": "चालक ",
    "2738": "असलेले ",
    "2739": "ाची ",
    "2740": ".\n\nया ",
    "2741": "नाय",
    "2742": "निरी",
    "2743": " करण्यात आले आहे.\n\n",
    "2744": "बाद ",
    "2745": "सुरक्षा ",
    "2746": "करण्यात आली आहे.\n\n",
    "2747": "पत्नी ",
    "2748": "टल",
    "2749": "“ ",
    "2750": "सर ",
    "2751": "जर",
    "2752": "धड",
    "2753": "फ्रि",
    "2754": "सांगितले ",
    "2755": "मार्ग ",
    "2756": "केंद्र सरकार",
    "2757": "19",
    "2758": "वैद्य",
    "2759": "करिता ",
    "2760": "भरपूर ",
    "2761": "…\n\n",
    "2762": "नुसार",
    "2763": "स्टि",
    "2764": "आय ",
    "2765": "झालेली ",
    "2766": "भाजपच्या ",
    "2767": "सापड",
    "2768": "सें",
    "2769": "मोबा",
    "2770": " किती ",
    "2771": "स्थिती ",
    "2772": "व्यवसा",
    "2773": "आवा",
    "2774": "घेतली ",
    "2775": "‍ॅ",
    "2776": "सूत्र",
    "2777": "पश्चिम ",
    "2778": "संघ ",
    "2779": "अशा",
    "2780": "ले\n\n",
    "2781": "खंड",
    "2782": "लेली नाही.\n\n",
    "2783": "वन",
    "2784": "णाऱ्‍या ",
    "2785": "लाही ",
    "2786": "व्हिडिओ ",
    "2787": "घरात ",
    "2788": "तक्रार ",
    "2789": "विक",
    "2790": "परिसरात ",
    "2791": "तुम्ह",
    "2792": "यांनीही ",
    "2793": "सुरुवा",
    "2794": "तरीही ",
    "2795": "फी ",
    "2796": "टीम ",
    "2797": "अभिन",
    "2798": "अर्था",
    "2799": " करण्या",
    "2800": "लोकांनी ",
    "2801": "विधा ",
    "2802": "ज्येष्ठ ",
    "2803": " करण्यात आली आहे.\n\n",
    "2804": "ंभ",
    "2805": "घेत ",
    "2806": "च आहे.\n\n",
    "2807": "मदत कर",
    "2808": "ले आणि ",
    "2809": "प्रमाण",
    "2810": "उद्योग",
    "2811": "स्वीकार",
    "2812": "पात ",
    "2813": "उचल",
    "2814": "धक्",
    "2815": "आरोग्य ",
    "2816": "खर्च ",
    "2817": "वेगळे ",
    "2818": "तात्",
    "2819": "असल्याने ",
    "2820": "’ असे ",
    "2821": "नारा",
    "2822": "शेवट",
    "2823": "नवे ",
    "2824": "पाच",
    "2825": "अर्थात ",
    "2826": "म्पि",
    "2827": "लोकांच्या ",
    "2828": " सांग",
    "2829": "ची भूमिका ",
    "2830": "वृत्ती ",
    "2831": "या चित्रपटात ",
    "2832": "कार्",
    "2833": "१० ",
    "2834": "२००",
    "2835": "चेह",
    "2836": "घर ",
    "2837": "ं आहे.\n\n",
    "2838": "सत",
    "2839": "वाल ",
    "2840": "स्वी ",
    "2841": "महाराष्ट्र ",
    "2842": "िमंडळा",
    "2843": "तो?\n\n",
    "2844": "ग्राह",
    "2845": "अधिकार",
    "2846": "नाच ",
    "2847": "पाठिंबा ",
    "2848": "पदी ",
    "2849": "याच",
    "2850": "उपचारा",
    "2851": "पूर्णपणे ",
    "2852": "योग ",
    "2853": "वन ",
    "2854": "भविष",
    "2855": "ार्वज",
    "2856": "तातडीने ",
    "2857": "पृथ",
    "2858": "पृथ्",
    "2859": "राजे",
    "2860": "इंग्लंड",
    "2861": "न्न",
    "2862": "आयआय",
    "2863": "कन ",
    "2864": "गै",
    "2865": "पर्यावर",
    "2866": "उपलब्ध",
    "2867": "वां",
    "2868": "ळावर ",
    "2869": "स्वातंत्र",
    "2870": ". म",
    "2871": "स्वत:",
    "2872": "निर्णय घेत",
    "2873": " क्रि",
    "2874": "्याचे ",
    "2875": "लढा",
    "2876": "नाही, असे ",
    "2877": "प्रसिद्ध ",
    "2878": "ठा ",
    "2879": "नाही. ",
    "2880": "ध्या ",
    "2881": "गुन्ह",
    "2882": "प्रक्रिया ",
    "2883": "ऱ्यांना ",
    "2884": "शहर ",
    "2885": "हिं",
    "2886": "मित्र",
    "2887": "अग्नि",
    "2888": "निवडणूक लढ",
    "2889": " कळ",
    "2890": " करण्याची ",
    "2891": " सोशल मीडियावर ",
    "2892": "संधी ",
    "2893": "व्ही",
    "2894": " सि",
    "2895": "ाचा ",
    "2896": "चीही ",
    "2897": "सिंग ",
    "2898": "लीच ",
    "2899": "फायदा ",
    "2900": "पॉ",
    "2901": "कॉंग्रे",
    "2902": "नो, ",
    "2903": "चेही ",
    "2904": "धर्",
    "2905": "नेही ",
    "2906": "बांग",
    "2907": "स्कृ",
    "2908": "या कार्य",
    "2909": "सर्वोत्",
    "2910": "भारताचे ",
    "2911": "क्षेत्रा",
    "2912": "झालेले ",
    "2913": "याच ",
    "2914": "प्रोत्",
    "2915": "प्रोत्साह",
    "2916": "आत्म",
    "2917": "मस",
    "2918": "हत्ये",
    "2919": "तेला ",
    "2920": "परवानगी ",
    "2921": "बाबतीत ",
    "2922": "णे गरजे",
    "2923": "पोर्",
    "2924": "घटना घड",
    "2925": "उद्धव ठाकरे ",
    "2926": "विण्यात आ",
    "2927": "ण्यास मद",
    "2928": "जनते",
    "2929": "यांच्यात ",
    "2930": "सात",
    "2931": "प्रचंड ",
    "2932": "आहे,",
    "2933": "यश ",
    "2934": "पाऊस ",
    "2935": "पाटील",
    "2936": "निधी ",
    "2937": "णाच्या ",
    "2938": "बलात्",
    "2939": "त्यामध्ये ",
    "2940": ": १",
    "2941": "जपा",
    "2942": "त्याच ",
    "2943": "मनात ",
    "2944": "ता आणि ",
    "2945": "होती ",
    "2946": "खरेदी ",
    "2947": "साक्ष",
    "2948": "शू ",
    "2949": "रोज ",
    "2950": " सां",
    "2951": "तिस",
    "2952": "कौ",
    "2953": "रोजग",
    "2954": " कार्याल",
    "2955": "वाहन",
    "2956": "निष्",
    "2957": "स्पि",
    "2958": "कांचा ",
    "2959": "बाबत",
    "2960": "विद्याल",
    "2961": "वण्यासाठी ",
    "2962": "वरही ",
    "2963": "मोह",
    "2964": "परत ",
    "2965": " केवळ ",
    "2966": "केंद्रीय ",
    "2967": "उमेदवार ",
    "2968": "नेहमी ",
    "2969": " सर्व ",
    "2970": "रात्री ",
    "2971": "  ",
    "2972": "पैकी एक ",
    "2973": " कार्",
    "2974": "लाय",
    "2975": "तिची ",
    "2976": "असल्याचा ",
    "2977": "प्रदेशा",
    "2978": "ध्यक्ष",
    "2979": "यहोवा ",
    "2980": "जरा ",
    "2981": "दोघां",
    "2982": "टन",
    "2983": "जाईल.\n\n",
    "2984": "पट्",
    "2985": "काला ",
    "2986": "ेल, ",
    "2987": "प्रेम ",
    "2988": "वडील ",
    "2989": "निर्माण",
    "2990": "क्‍त ",
    "2991": " कायद्या",
    "2992": "स्थानी ",
    "2993": "गाव ",
    "2994": "स्थानिक ",
    "2995": "अर्थव्यवस्थ",
    "2996": "कुमार ",
    "2997": "प्रेम",
    "2998": "सोशल मीडियावर ",
    "2999": "विमानत",
    "3000": " सुरु ",
    "3001": "येत ",
    "3002": "आघाडी ",
    "3003": "चांगला ",
    "3004": "कून ",
    "3005": "शोक ",
    "3006": "स्वच्छ ",
    "3007": "तेव्हा",
    "3008": "ातील ",
    "3009": "आधारित ",
    "3010": "दुसऱ्या",
    "3011": "आयुक्त ",
    "3012": "पा ",
    "3013": "आदि",
    "3014": "झील",
    "3015": "कायम ",
    "3016": "पोलिसांना ",
    "3017": "रेल्वे",
    "3018": "असताना ",
    "3019": "ग, ",
    "3020": "ंबा",
    "3021": "ुत्",
    "3022": "साहि",
    "3023": "प्रकरणात ",
    "3024": "तुला ",
    "3025": "यांनी सांगितले.\n\n",
    "3026": "ऊर्जा ",
    "3027": "नामुळे ",
    "3028": "एवढ",
    "3029": "पोलीस",
    "3030": "गरी",
    "3031": "जगात ",
    "3032": "दुष्",
    "3033": "खरे ",
    "3034": "बंगाल",
    "3035": "अहवाल ",
    "3036": "आहे का?\n\n",
    "3037": "नमध्ये ",
    "3038": "प्रमाण ",
    "3039": "झाल्याचे ",
    "3040": "दौऱ्या",
    "3041": "टे ",
    "3042": "नी, ",
    "3043": "मिश्र",
    "3044": "शर",
    "3045": "ट्विट",
    "3046": "\"\"\" ",
    "3047": " समज",
    "3048": "मुद्द",
    "3049": "होऊन ",
    "3050": "र, ",
    "3051": "दिवस",
    "3052": "प्रतिसाद",
    "3053": "ल्यामुळे ",
    "3054": "केत",
    "3055": "शर्मा ",
    "3056": "खान",
    "3057": "उल्लेख",
    "3058": "शीर्",
    "3059": "घु",
    "3060": "अंति",
    "3061": "संस",
    "3062": "आत्महत्या",
    "3063": "ीन",
    "3064": "गुंतवणूक",
    "3065": " महाराष्ट्र",
    "3066": "या सं",
    "3067": "तदार",
    "3068": "आहे हे ",
    "3069": "प्रदर्शि",
    "3070": "महिले",
    "3071": "गोळीबार",
    "3072": "पाय",
    "3073": " केंद्रीय ",
    "3074": "ांत",
    "3075": "व्ह ",
    "3076": "व्यक्ती ",
    "3077": "्व",
    "3078": "पाळ",
    "3079": "जखमी झाले आहेत.\n\n",
    "3080": "विड",
    "3081": "उल",
    "3082": "पत ",
    "3083": "तेही ",
    "3084": "शौ",
    "3085": "जीव ",
    "3086": "तले ",
    "3087": "गुजरात",
    "3088": "केने ",
    "3089": "गाड",
    "3090": "अन्य ",
    "3091": "उभार",
    "3092": "अजित ",
    "3093": "ळीत ",
    "3094": "प्रवेश ",
    "3095": "वण्यात आ",
    "3096": "वरि",
    "3097": "झु",
    "3098": "नाथ ",
    "3099": "र्टा",
    "3100": "आरोपी ",
    "3101": "व्हे",
    "3102": "ताने ",
    "3103": "देण्यासाठी ",
    "3104": "ू शकतो.\n\n",
    "3105": "बाजू",
    "3106": "प्रकारच्या ",
    "3107": " करणार ",
    "3108": "काव",
    "3109": "त्याच्यावर ",
    "3110": "सीसीटीव्ह",
    "3111": " कोणत्याही ",
    "3112": "ग्राम",
    "3113": "ते आणि ",
    "3114": "बोलताना ",
    "3115": "झाली होती.\n\n",
    "3116": "टक्क",
    "3117": "आहा",
    "3118": "ांज",
    "3119": "णावर ",
    "3120": "कारक ",
    "3121": " कधी",
    "3122": "आयसी",
    "3123": "दायक ",
    "3124": "जिल्ह्यातील ",
    "3125": "मूर्",
    "3126": "शार",
    "3127": "आहे.",
    "3128": "इच्छा ",
    "3129": "तिसर",
    "3130": "वर्षे ",
    "3131": "उर्",
    "3132": "पंतप्रधान नरेंद्र मोदी यांनी ",
    "3133": "घालून ",
    "3134": "ृत्यू ",
    "3135": "दिला आहे.\n\n",
    "3136": "रावर ",
    "3137": "मेल",
    "3138": "वेळे",
    "3139": " कृ",
    "3140": "तित",
    "3141": "कारण",
    "3142": "मलबजाव",
    "3143": "ंबर",
    "3144": " कोटी",
    "3145": "धू",
    "3146": "ूनच ",
    "3147": "त्ती",
    "3148": "अनुभव ",
    "3149": "कर्म",
    "3150": "मुलांना ",
    "3151": "गोंध",
    "3152": "ताब्यात घेत",
    "3153": " मुंब",
    "3154": "दिला ",
    "3155": "निवडणु",
    "3156": "सगळे ",
    "3157": "बांगला",
    "3158": "12 ",
    "3159": "भारत आणि ",
    "3160": "भाव ",
    "3161": "/ ",
    "3162": "माहिती",
    "3163": "नेहमी",
    "3164": "कोरो",
    "3165": "दिली",
    "3166": "उतर",
    "3167": "डिसे",
    "3168": "ली आहेत.\n\n",
    "3169": "मर",
    "3170": "चां",
    "3171": "त होते.\n\n",
    "3172": "१५",
    "3173": "पहा",
    "3174": "शुभे",
    "3175": "शुभेच्छ",
    "3176": "येऊन ",
    "3177": "ली, ",
    "3178": "वापरा",
    "3179": "बंद ",
    "3180": "एका",
    "3181": "समध्ये ",
    "3182": "ट्रो",
    "3183": "डॉल",
    "3184": "पंजा",
    "3185": "े तर ",
    "3186": "असतो.\n\n",
    "3187": "तेथ",
    "3188": " करणे ",
    "3189": "घ्या.\n\n",
    "3190": "प्रकृती ",
    "3191": "तीव्र ",
    "3192": "तपास ",
    "3193": "क\n\n",
    "3194": " सेवा ",
    "3195": "एकत्र",
    "3196": "संघात ",
    "3197": "उत्तर प्रदेश",
    "3198": "धान ",
    "3199": "पंतप्रधान नरेंद्र मोदी",
    "3200": "स्फो",
    "3201": "यशस्वी ",
    "3202": "स आणि ",
    "3203": "अपेक्ष",
    "3204": "उपचार सुरू ",
    "3205": "ालाव",
    "3206": "er",
    "3207": "उघड",
    "3208": "ीत आहेत.\n\n",
    "3209": "डॉक्टर",
    "3210": "ण्याचा प्रयत्न कर",
    "3211": "हॉस्पि",
    "3212": "उपचारासाठी ",
    "3213": "ल्यावर ",
    "3214": "क्क",
    "3215": "कट ",
    "3216": "प्रकार ",
    "3217": "परीक्षा ",
    "3218": "पृथ्वी",
    "3219": "यी ",
    "3220": "परंतु, ",
    "3221": "न्यायाधी",
    "3222": "राष्ट्रा",
    "3223": "केलेली ",
    "3224": "्यांवर ",
    "3225": "आहे.\n\nत्यामुळे ",
    "3226": "बैठक ",
    "3227": "बंदी ",
    "3228": " करण्यात आला.\n\n",
    "3229": "ंद ",
    "3230": "ा\n\n",
    "3231": "नॉ",
    "3232": "प्री",
    "3233": "लेले नाही.\n\n",
    "3234": "गेला.\n\n",
    "3235": "ऑनलाई",
    "3236": "ऑनलाईन ",
    "3237": "नै",
    "3238": "मंजुरी ",
    "3239": "लै",
    "3240": "ंढ",
    "3241": "घात ",
    "3242": "रिया",
    "3243": "म्हणणे ",
    "3244": "लो.\n\n",
    "3245": "यासंदर्भात ",
    "3246": "मंत्राल",
    "3247": "देशाच्या ",
    "3248": "ल्या जा",
    "3249": "बाहेर काढ",
    "3250": ",\n\n",
    "3251": "वेत ",
    "3252": "छो",
    "3253": "धाव ",
    "3254": "कडून",
    "3255": "चे.\n\n",
    "3256": "राव ",
    "3257": "विद्यापीठा",
    "3258": "सुधारणा ",
    "3259": "जाहीर ",
    "3260": "मृत्यू झाला.\n\n",
    "3261": "प्राप्",
    "3262": "नाही\n\n",
    "3263": "साकार",
    "3264": "सामाजिक ",
    "3265": "पराभव ",
    "3266": "खेळाडू",
    "3267": "कर्णधार ",
    "3268": "re",
    "3269": "हॅ",
    "3270": "निया ",
    "3271": "ट्विटर",
    "3272": "बरा",
    "3273": "मृतदे",
    "3274": "निर्मिती ",
    "3275": "बिहार",
    "3276": "यातील ",
    "3277": "बँक ",
    "3278": "चढ",
    "3279": "सहा",
    "3280": "र्स ",
    "3281": "रच",
    "3282": "अपघातात ",
    "3283": "ऐव",
    "3284": "वस्तू ",
    "3285": "गेल्या काही ",
    "3286": "जागी",
    "3287": "माहिती दिली.\n\n",
    "3288": "पोलीस ठाण्यात ",
    "3289": "र्जी ",
    "3290": "टुंबा",
    "3291": "स्टा",
    "3292": "जणांना ",
    "3293": "वाहतू",
    "3294": "निषेध",
    "3295": "एल ",
    "3296": "रुग्ण",
    "3297": "क्रिकेट",
    "3298": "लु",
    "3299": "र्ड",
    "3300": " करायला ",
    "3301": "ला\n\n",
    "3302": "सहकार",
    "3303": "पंतप्रधान नरेंद्र मोदी यांच्या ",
    "3304": "पर्क ",
    "3305": "गेला ",
    "3306": "ेय ",
    "3307": "वायला ",
    "3308": "भार ",
    "3309": "विकस",
    "3310": "नम",
    "3311": "इच्छि",
    "3312": "गृहमंत्री ",
    "3313": "अमित शहा ",
    "3314": "धर्म",
    "3315": "बाल",
    "3316": " मोठ्या ",
    "3317": "विश्‍वास",
    "3318": "न आहे.\n\n",
    "3319": "ू शकत नाही.\n\n",
    "3320": "साधार",
    "3321": "उद्दि",
    "3322": "पवार ",
    "3323": "पवित्र ",
    "3324": ", आणि ",
    "3325": "येणार ",
    "3326": "द्रा",
    "3327": "रोहित श",
    "3328": "अहवाल",
    "3329": "होणार",
    "3330": "दहा ",
    "3331": "दावा ",
    "3332": "क्रमां",
    "3333": "ध्यात्",
    "3334": "वास्त",
    "3335": "अंतिम ",
    "3336": "कै",
    "3337": "शल",
    "3338": "10 ",
    "3339": "रीत ",
    "3340": "पण ते ",
    "3341": "प्रथम",
    "3342": "भारताला ",
    "3343": "उपास",
    "3344": "कडा",
    "3345": "हस्त",
    "3346": "फ्रे",
    "3347": "जातो.\n\n",
    "3348": "पिका ",
    "3349": "बॅं",
    "3350": "100 ",
    "3351": "सारखी ",
    "3352": "कीत ",
    "3353": "विविध",
    "3354": ": २",
    "3355": "तंत्रज्ञान ",
    "3356": "प्राप्त ",
    "3357": "जिल्हा ",
    "3358": "उपाय",
    "3359": "सर्वांना ",
    "3360": "णाचे ",
    "3361": "अध्यक्षते",
    "3362": "त्मा ",
    "3363": "आले ",
    "3364": "प्रकल्प",
    "3365": "व्यक्ति",
    "3366": "न यांनी ",
    "3367": "मिळेल.\n\n",
    "3368": "वैय",
    "3369": "चल ",
    "3370": "हल",
    "3371": "पवार",
    "3372": ". — ",
    "3373": "का.\n\n",
    "3374": "आमदार",
    "3375": "र्घ",
    "3376": "लोकसभा मतदार",
    "3377": "तृ",
    "3378": "दुः",
    "3379": "सहभाग ",
    "3380": "सामान्य ",
    "3381": "आहे असे ",
    "3382": "व अ",
    "3383": "पूर्व ",
    "3384": "मुस्",
    "3385": "संघातून ",
    "3386": "ेले ",
    "3387": "लाय.\n\n",
    "3388": "लवकर ",
    "3389": "शै",
    "3390": "हानी ",
    "3391": "आलेल्या ",
    "3392": "ड, ",
    "3393": "\n\nत्या",
    "3394": " काळा",
    "3395": "वाज",
    "3396": "ील.\n\n",
    "3397": "वर्षात ",
    "3398": "घटक ",
    "3399": "शिष्ट",
    "3400": "ग्रामी",
    "3401": "खासदार",
    "3402": "हेच ",
    "3403": "च कर",
    "3404": "हल्ला ",
    "3405": "मार्गदर्श",
    "3406": "विनं",
    "3407": " सध्या ",
    "3408": "डोनाल",
    "3409": "डोनाल्ड ",
    "3410": "आंध",
    "3411": "मालि",
    "3412": "अखेर ",
    "3413": "पाहायला ",
    "3414": "केली जा",
    "3415": "सुनावणी ",
    "3416": "मर्या",
    "3417": "साठी, ",
    "3418": " करण्यात आली.\n\n",
    "3419": "रशि",
    "3420": "ची ही ",
    "3421": "ेचे ",
    "3422": "उत्पन्",
    "3423": "स्त्रि",
    "3424": "रविवारी ",
    "3425": "जमा",
    "3426": "उपयोग",
    "3427": "करण कर",
    "3428": "ंट ",
    "3429": "किं",
    "3430": "लग",
    "3431": "अंमलबजाव",
    "3432": "लाच्या ",
    "3433": "अब्",
    "3434": "पुरु",
    "3435": "भगि",
    "3436": "फोटो ",
    "3437": "सुविधा ",
    "3438": "क्षित ",
    "3439": "दिवसा",
    "3440": "नातील ",
    "3441": "पहिले ",
    "3442": "आहे, असे ",
    "3443": "तपणे ",
    "3444": "पाई",
    "3445": "सभेत ",
    "3446": " सह",
    "3447": "प्रकारची ",
    "3448": "होतं.\n\n",
    "3449": "स्य",
    "3450": "पाकिस्तान ",
    "3451": " कोटी रुपये ",
    "3452": "डोळ",
    "3453": "स्थितीत ",
    "3454": "दु:",
    "3455": "कल्पना ",
    "3456": "चर्चे",
    "3457": "मागील ",
    "3458": "पक ",
    "3459": "ांशी ",
    "3460": "ंबंध",
    "3461": "सरकारला ",
    "3462": "पणा ",
    "3463": " सरकार ",
    "3464": "विद्यार्थ्यांना ",
    "3465": "देऊन ",
    "3466": "ते. ",
    "3467": "नेला ",
    "3468": "भागी",
    "3469": "ध्द",
    "3470": "िक",
    "3471": "कंपनी",
    "3472": "ू शकतात.\n\n",
    "3473": "नांची ",
    "3474": "\n\nमात्र, ",
    "3475": "अर ",
    "3476": "निश्चित ",
    "3477": "मराठी ",
    "3478": "ण्यात येणार आहे.\n\n",
    "3479": "तपा",
    "3480": "काय?\n\n",
    "3481": "प्रत्यक्ष",
    "3482": "लोकश",
    "3483": "वर्ण",
    "3484": "क्यात ",
    "3485": "झेल",
    "3486": "रोहित शर्",
    "3487": "सलमान ",
    "3488": "नॅ",
    "3489": "मनुष",
    "3490": "नव्हे तर ",
    "3491": "तेल ",
    "3492": "कल ",
    "3493": "आध्यात्",
    "3494": "ली आणि ",
    "3495": "कोणाल",
    "3496": "करण्याचा ",
    "3497": "शिक्षण",
    "3498": "ंवर ",
    "3499": "च्या माध्यमातून ",
    "3500": "ऑक्",
    "3501": " कंप",
    "3502": "झि",
    "3503": "रोख",
    "3504": "वर आहे.\n\n",
    "3505": "णाचा ",
    "3506": "पद्",
    "3507": "भूमिकेत ",
    "3508": "प्रवाश",
    "3509": "सिद्ध",
    "3510": "मोठ्या प्रमाणात ",
    "3511": "व्यक्ती",
    "3512": "कधीही ",
    "3513": "केच्या ",
    "3514": " मंत्रिमंडळा",
    "3515": "मानवी ",
    "3516": "शहरातील ",
    "3517": "आणि सं",
    "3518": "परिषदेत ",
    "3519": "स्तो",
    "3520": "१३",
    "3521": "देशी ",
    "3522": "19 ",
    "3523": "वली.\n\n",
    "3524": "निरीक्षक ",
    "3525": "प्रदेश ",
    "3526": "तीमध्ये ",
    "3527": "संयुक्त ",
    "3528": "या आ",
    "3529": "अक्षय",
    "3530": "वाईट ",
    "3531": "याआधी ",
    "3532": "दल",
    "3533": "युव",
    "3534": "चिंत",
    "3535": "अध्यक्षतेखाली ",
    "3536": "पाणी",
    "3537": "मध्येच ",
    "3538": "धावा ",
    "3539": "कशा",
    "3540": "ार्वजनिक ",
    "3541": "वैयक्",
    "3542": "भरा",
    "3543": "ण्यात आले.\n\n",
    "3544": "त्यानंतर",
    "3545": "फोन ",
    "3546": "पूर्ण कर",
    "3547": "आम्ह",
    "3548": "युर",
    "3549": "काँग्रेसचे ",
    "3550": " करतात.\n\n",
    "3551": "टल ",
    "3552": "भाषा ",
    "3553": "स्था ",
    "3554": "सेवक ",
    "3555": "विजे",
    "3556": "रवा",
    "3557": "अमित शाह ",
    "3558": "बं",
    "3559": "नात",
    "3560": "विद्यार्थ्यांनी ",
    "3561": "मंग",
    "3562": "विज्ञा",
    "3563": "अ‍ॅ",
    "3564": "नियम ",
    "3565": "दैवाने ",
    "3566": "स्पर्धेत ",
    "3567": "मात्र, अ",
    "3568": "दुखा",
    "3569": "उपस्थित राह",
    "3570": "ंडी ",
    "3571": "आशि",
    "3572": "्याचा ",
    "3573": "वेत",
    "3574": "करत ",
    "3575": "तुमची ",
    "3576": "यादी ",
    "3577": "दूर ",
    "3578": "देण्या",
    "3579": " कौ",
    "3580": "विनंती ",
    "3581": "कबु",
    "3582": "वाहि",
    "3583": "पाकिस्तानने ",
    "3584": "तै",
    "3585": "ीला ",
    "3586": "पिढ",
    "3587": "लोकसभे",
    "3588": "ेश ",
    "3589": "प्राथ",
    "3590": "प्राथमिक ",
    "3591": "या बैठकी",
    "3592": "रात्र",
    "3593": "अशोक ",
    "3594": "अत्या",
    "3595": "वर्ग",
    "3596": "ब्रा",
    "3597": "वाला ",
    "3598": "काळा",
    "3599": "पोस्ट",
    "3600": "टॉम",
    "3601": "च मृत्यू ",
    "3602": "! ",
    "3603": "ची माहिती मिळ",
    "3604": " समा",
    "3605": "या निर्ण",
    "3606": "रॉ",
    "3607": "हल्ल्यात ",
    "3608": "करीत ",
    "3609": "पुरवठा ",
    "3610": "स.\n\n",
    "3611": " कर्",
    "3612": "वस्तू",
    "3613": "लाने ",
    "3614": "गर्दी ",
    "3615": "जिल्ह्यात ",
    "3616": "बायबल ",
    "3617": "डॉ. ",
    "3618": "न्यूझील",
    "3619": "चिन्ह",
    "3620": "त्यांनी सांगितले.\n\n",
    "3621": "केर",
    "3622": "00",
    "3623": " मी",
    "3624": " कॅ",
    "3625": " कुठ",
    "3626": "ंदर ",
    "3627": "ळ, ",
    "3628": "ले असून ",
    "3629": "प्रत्युत्",
    "3630": "म्हणा",
    "3631": "ण्यात आले आहे.\n\n",
    "3632": "शाळा ",
    "3633": "ी. ",
    "3634": "योग्य",
    "3635": "शमन ",
    "3636": "क्स ",
    "3637": "तर्",
    "3638": "झालेला ",
    "3639": "तील, ",
    "3640": "ना.\n\n",
    "3641": "वा, ",
    "3642": " कर्मचारी ",
    "3643": "वार्",
    "3644": "चौथ",
    "3645": "ष्ण",
    "3646": "म्हणाले, ",
    "3647": "चर ",
    "3648": "दृष्टीने ",
    "3649": "शाल",
    "3650": "तो क",
    "3651": "विद्यापीठ",
    "3652": "तीवर ",
    "3653": "बरी",
    "3654": "शकेल",
    "3655": "महाराष्ट्रात ",
    "3656": "अपघाता",
    "3657": "प्पा ",
    "3658": "जवळपास ",
    "3659": "णे आणि ",
    "3660": "होऊ ",
    "3661": "शिफार",
    "3662": "य आहे.\n\n",
    "3663": "पुरे",
    "3664": "भारत हा ",
    "3665": "तोड",
    "3666": "बाळग",
    "3667": "श्‍च",
    "3668": "दिसून ",
    "3669": "येते.\n\n",
    "3670": "करावा लाग",
    "3671": "ढ ",
    "3672": "आर्",
    "3673": "तः ",
    "3674": "धोर",
    "3675": " मुख्य",
    "3676": "यांच्याशी ",
    "3677": "सीबी",
    "3678": "कोल",
    "3679": "वाहन ",
    "3680": "वस",
    "3681": "ं नाही.\n\n",
    "3682": "णाऱ्या",
    "3683": "त असताना ",
    "3684": "संपर्क ",
    "3685": "तपासणी ",
    "3686": "ीर ",
    "3687": "केट ",
    "3688": "नर ",
    "3689": "जम्मू-",
    "3690": "विधानसभे",
    "3691": "इरा",
    "3692": "आशीर्",
    "3693": "प्रश्‍न ",
    "3694": " केले होते.\n\n",
    "3695": "अधिकृ",
    "3696": "नाहीये.\n\n",
    "3697": "राहुल गांधी",
    "3698": "आहे.\n\nमात्र ",
    "3699": "चर्च",
    "3700": "च्छे",
    "3701": "ळात ",
    "3702": "विक्र",
    "3703": " सरकारने ",
    "3704": "झळ",
    "3705": "स्वामी ",
    "3706": "जून ",
    "3707": "येशू ",
    "3708": "वेगळ्या ",
    "3709": "घेण्याची ",
    "3710": " करत आहे.\n\n",
    "3711": "नागरिक",
    "3712": "आमचे ",
    "3713": "अरविंद",
    "3714": "जरीवाल ",
    "3715": "पक्षाच्या ",
    "3716": "ून जा",
    "3717": "दीपिका ",
    "3718": "दावी",
    "3719": "ाहिती ",
    "3720": "पार पड",
    "3721": "ऱ्यांनी ",
    "3722": "नवी दिल्ली, ",
    "3723": "उलट",
    "3724": "खल ",
    "3725": "लंय.\n\n",
    "3726": "इस्",
    "3727": "काश्मीर",
    "3728": "बाद",
    "3729": "भांड",
    "3730": "ज्ञा ",
    "3731": "हाती ",
    "3732": "कायदा ",
    "3733": " सम",
    "3734": "जै",
    "3735": "आयो",
    "3736": "तंत्रज्ञा",
    "3737": "लासा ",
    "3738": "औषध",
    "3739": "बरे",
    "3740": "भाजपमध्ये ",
    "3741": "दीर्घ",
    "3742": "विरोधी पक्ष",
    "3743": " करताना ",
    "3744": "का\n\n",
    "3745": "आस",
    "3746": "ंमध्ये ",
    "3747": "सुरू आहे.\n\n",
    "3748": " सचि",
    "3749": " केला होता.\n\n",
    "3750": "उठ",
    "3751": "इमार",
    "3752": "अर्ज",
    "3753": "फॉ",
    "3754": "णाची ",
    "3755": "येशूच्या ",
    "3756": "ाल.\n\n",
    "3757": "त आणि ",
    "3758": "अपघात ",
    "3759": "सूर",
    "3760": "गुन्हा दाखल करण्यात आला आहे.\n\n",
    "3761": "2020 ",
    "3762": "यापूर्वी ",
    "3763": "मतदान ",
    "3764": "न्यां",
    "3765": "भेट",
    "3766": "राऊ",
    "3767": "इले",
    "3768": "आपल्याकडे ",
    "3769": "माचे ",
    "3770": "कुटुंब",
    "3771": "जवान",
    "3772": "र्ष",
    "3773": "बचा",
    "3774": "असलेला ",
    "3775": "झाली नाही.\n\n",
    "3776": "मध्य ",
    "3777": "यांच्यावर ",
    "3778": "आहेत\n\n",
    "3779": "आंब",
    "3780": "प्रेर",
    "3781": "एप्रिल ",
    "3782": "दाचित ",
    "3783": "यादीत ",
    "3784": "तेचा ",
    "3785": "प्रसार",
    "3786": "शिं",
    "3787": "डोनाल्ड ट्रम्प ",
    "3788": "लंघ",
    "3789": "मानसि",
    "3790": "शिक्षा ",
    "3791": " कोटी रुप",
    "3792": "तोंड ",
    "3793": "विश्‍वास ",
    "3794": "बॅन",
    "3795": "व्य ",
    "3796": "पुरस्कार ",
    "3797": "राजस्थान",
    "3798": "राहा",
    "3799": "जबाबदारी ",
    "3800": "सन ",
    "3801": "वक्तव्य",
    "3802": "तब्",
    "3803": "रने ",
    "3804": "दिग्दर्शक ",
    "3805": "नेत ",
    "3806": "त्त",
    "3807": "राने ",
    "3808": "्याच ",
    "3809": "ग्रस्त ",
    "3810": "पैसे ",
    "3811": "नदी",
    "3812": "कारात्मक ",
    "3813": "यांच्यासह ",
    "3814": "चॅ",
    "3815": "50 ",
    "3816": "त्रास ",
    "3817": "पेक्षा जास्त ",
    "3818": "का, ",
    "3819": "प्रोत्साहन ",
    "3820": "नाहीत ",
    "3821": "यहोवाने ",
    "3822": "१६",
    "3823": "रव",
    "3824": "चोर",
    "3825": "अंमलबजावणी ",
    "3826": "तिघ",
    "3827": "नाटक",
    "3828": "फटका ",
    "3829": "वाड",
    "3830": "सर्वोच्च न्यायालयाने ",
    "3831": "प्रकल्प ",
    "3832": "आमची ",
    "3833": "झाल्याने ",
    "3834": "आदेश ",
    "3835": "स्तु",
    "3836": "स्था, ",
    "3837": "बळ ",
    "3838": "अतिशय",
    "3839": "मृतदेह ",
    "3840": "उड",
    "3841": "अभिया",
    "3842": " करण्यात आला आहे.\n\n",
    "3843": "हिवा",
    "3844": "सोटी",
    "3845": "कांमध्ये ",
    "3846": "कसोटी ",
    "3847": "कला ",
    "3848": "ाण",
    "3849": "एकदा ",
    "3850": "लाल",
    "3851": "त असलेल्या ",
    "3852": "पोह",
    "3853": "लागू",
    "3854": " सदस",
    "3855": "आयोजित ",
    "3856": "होता ",
    "3857": "तरुण",
    "3858": "अह",
    "3859": "मुंबईत ",
    "3860": "नीति",
    "3861": "उदाहरण ",
    "3862": " संबंध",
    "3863": "सक्ष",
    "3864": "भागातील ",
    "3865": "वीज ",
    "3866": "ुल",
    "3867": "बोलाव",
    "3868": "हृ",
    "3869": "आहे की, ",
    "3870": "पातळी",
    "3871": " कोरो",
    "3872": "चाच ",
    "3873": "इस्राएल",
    "3874": "होत नाही.\n\n",
    "3875": "प्रार",
    "3876": "देवाला ",
    "3877": "होता, ",
    "3878": "राज्य सरकारने ",
    "3879": "पाप",
    "3880": "चुकी",
    "3881": "वाचा ",
    "3882": "फी",
    "3883": "सोप",
    "3884": "करणार ",
    "3885": "जनतेला ",
    "3886": "बसला आहे.\n\n",
    "3887": "च्या काळात ",
    "3888": "्हा",
    "3889": "पूर, ",
    "3890": "हजारो ",
    "3891": "खासगी ",
    "3892": "एच",
    "3893": "ंभ ",
    "3894": " सत्",
    "3895": "ूट ",
    "3896": "आला.\n\n",
    "3897": "त्याचबरोबर ",
    "3898": "राष्ट्रपती",
    "3899": "न्स ",
    "3900": " कोणी ",
    "3901": "गट",
    "3902": "अवलंब",
    "3903": "कमध्ये ",
    "3904": "याबद्दल ",
    "3905": "स्वतःला ",
    "3906": "इंग्र",
    "3907": "आध्यात्मिक ",
    "3908": "ऑलि",
    "3909": "ऑलिम्पि",
    "3910": "पदक ",
    "3911": "कुठे ",
    "3912": "यांच्यातील ",
    "3913": " कार्यकर्",
    "3914": "विधेय",
    "3915": "ह्या",
    "3916": "मती ",
    "3917": "णे आवश्यक आहे.\n\n",
    "3918": "आहेत?\n\n",
    "3919": "चाह",
    "3920": "ख्रिस्ता",
    "3921": "अफ",
    "3922": "संरक्षण ",
    "3923": "राजीनामा ",
    "3924": " क्षेत्रातील ",
    "3925": "तप",
    "3926": " करू शक",
    "3927": "ऑफ",
    "3928": "समाज",
    "3929": "सरी ",
    "3930": "श्रीलं",
    "3931": "नीय ",
    "3932": "स्तोत्र ",
    "3933": "यहू",
    "3934": "इतकी ",
    "3935": "नाते",
    "3936": "मुक्त ",
    "3937": "हॉस्पिटल",
    "3938": "महारा",
    "3939": "भारताची ",
    "3940": "दल ",
    "3941": "स्थे",
    "3942": "मुलगी ",
    "3943": "महाविद्याल",
    "3944": "यीन ",
    "3945": "नेटवर्",
    "3946": "अडक",
    "3947": "फलंदाजी ",
    "3948": " सुरू आहे.\n\n",
    "3949": "दिशे",
    "3950": " किलो",
    "3951": "जमा ",
    "3952": "विड-",
    "3953": "न्व",
    "3954": "सं ",
    "3955": "भूमी",
    "3956": "करायला ",
    "3957": "वर्ल्",
    "3958": "या दोन्ही ",
    "3959": "तुमचे ",
    "3960": "त्यातून ",
    "3961": "इतका ",
    "3962": "संरक्षण",
    "3963": "सॅ",
    "3964": "अँ",
    "3965": "एखाद्या ",
    "3966": "समाजा",
    "3967": "माजी मुख्यमंत्री ",
    "3968": "गैर",
    "3969": "रत ",
    "3970": "शहरात ",
    "3971": "जनता ",
    "3972": "पक्षाचे ",
    "3973": "चंद्रकांत ",
    "3974": "लहा",
    "3975": "आजार",
    "3976": "ीडा ",
    "3977": "दी अ",
    "3978": "राहील.\n\n",
    "3979": "70 ",
    "3980": "वे?\n\n",
    "3981": "युद्ध",
    "3982": "ऑग",
    "3983": "तीसाठी ",
    "3984": "मांड",
    "3985": "गुन्हा दाखल केला आहे.\n\n",
    "3986": "नेतृत्वा",
    "3987": "पश्चिम बंगाल",
    "3988": "जीएस",
    "3989": "त्त्वा",
    "3990": "त्यांनी सांगित",
    "3991": "ारी ",
    "3992": "ऱ्यात ",
    "3993": "ला. ",
    "3994": "विक ",
    "3995": "घेतली होती.\n\n",
    "3996": " मिळाले ",
    "3997": "स्क्र",
    "3998": "जेट",
    "3999": "टाय",
    "4000": "स्त्रो",
    "4001": "परमेश्वर",
    "4002": "पीठा",
    "4003": "महिन्या",
    "4004": "यहोवाचे ",
    "4005": "जाध",
    "4006": "तून",
    "4007": "गर्भ",
    "4008": "हाल",
    "4009": "जागां",
    "4010": "प्रिय ",
    "4011": "उल्लंघ",
    "4012": "ाय.\n\n",
    "4013": "आमचा ",
    "4014": "न दि",
    "4015": "\n\nत्यामुळे ",
    "4016": "तात?\n\n",
    "4017": " साली ",
    "4018": "गेली ",
    "4019": "गिरी",
    "4020": "प्रशासनाने ",
    "4021": "असा प्रश्न ",
    "4022": "चव्हा",
    "4023": "साहे",
    "4024": "पत्रकार ",
    "4025": "वासा",
    "4026": "अल ",
    "4027": "खेळ ",
    "4028": "काँग्रेसच्या ",
    "4029": "ूर",
    "4030": "आहे.\"\n\n",
    "4031": "समस्या ",
    "4032": "असा सव",
    "4033": "असल्यास ",
    "4034": "यचे ",
    "4035": "वेल",
    "4036": "पालि",
    "4037": "पहिली ",
    "4038": "ली जा",
    "4039": "शप",
    "4040": "परत",
    "4041": "फरक ",
    "4042": "याचिका ",
    "4043": "ठार ",
    "4044": "५० ",
    "4045": "आले.\n\n",
    "4046": "रूप",
    "4047": "साक्षी",
    "4048": " केंद्रीय",
    "4049": "दान",
    "4050": "चु",
    "4051": "परराष्ट्र",
    "4052": "व्",
    "4053": "निमित्त ",
    "4054": "हर ",
    "4055": "विधानसभा निवडणुकी",
    "4056": "भ्र",
    "4057": "एकही ",
    "4058": "गोलंदा",
    "4059": "चालका",
    "4060": "जखमींना ",
    "4061": "कॉंग्रेस",
    "4062": "अध्यक्षपदा",
    "4063": "भगिनी",
    "4064": "जाऊन ",
    "4065": "विरुद्ध",
    "4066": "विना",
    "4067": "गुर",
    "4068": "नमू",
    "4069": "धोका ",
    "4070": "पाचे ",
    "4071": "अथ",
    "4072": "e ",
    "4073": "असल्यामुळे ",
    "4074": "तो. ",
    "4075": "मौ",
    "4076": "प्रसं",
    "4077": "नने ",
    "4078": "सचिन ",
    "4079": "जमि",
    "4080": "al",
    "4081": "तात, ",
    "4082": "महत्त्वाची ",
    "4083": " सांगित",
    "4084": "शेवटी ",
    "4085": "ची माहिती मिळताच ",
    "4086": "अग्निशमन ",
    "4087": "लक्ष केंद्र",
    "4088": ",०",
    "4089": "अवघ",
    "4090": "पराभव",
    "4091": "या सिनेमात ",
    "4092": "पाया",
    "4093": "उदाहरण",
    "4094": "निधी",
    "4095": "खरो",
    "4096": "माय",
    "4097": "व्याव",
    "4098": "व्यावसाय",
    "4099": "ंच ",
    "4100": "व्यति",
    "4101": "प्रस्ताव ",
    "4102": "शिवसेना",
    "4103": "चौकशी",
    "4104": "तेवढ",
    "4105": "बांगलादेश",
    "4106": "लाभ ",
    "4107": "मजबू",
    "4108": "उत्त",
    "4109": "]\n\n",
    "4110": "गम ",
    "4111": "अपेक्षा ",
    "4112": "तसंच ",
    "4113": "ांकडून ",
    "4114": "देखील",
    "4115": "आदी ",
    "4116": "चांगल्या ",
    "4117": "योगदान ",
    "4118": "ची.\n\n",
    "4119": "ती\n\n",
    "4120": "ंडे ",
    "4121": "नाम",
    "4122": "विकसित ",
    "4123": "अस्",
    "4124": "निर्माण कर",
    "4125": "डिसेंबर ",
    "4126": "येशूने ",
    "4127": "पावले ",
    "4128": " कराव",
    "4129": "ल्यास ",
    "4130": "येत आहे.\n\n",
    "4131": "नाई",
    "4132": " कुटुंबी",
    "4133": "घटनास्थळी दाखल ",
    "4134": "तात्काळ ",
    "4135": "बाजी ",
    "4136": "सत्ता",
    "4137": "थेट ",
    "4138": "बायो",
    "4139": "ओ ",
    "4140": "निर्णय",
    "4141": "आत्महत्ये",
    "4142": "आणि अ",
    "4143": "तेच ",
    "4144": "खोल",
    "4145": "प्रतिसाद मिळ",
    "4146": "नितीन ",
    "4147": "नाराजी ",
    "4148": "जळ",
    "4149": "कधीच ",
    "4150": "दिवसांपासून ",
    "4151": "सैनि",
    "4152": "नॅशन",
    "4153": "स्वतः ",
    "4154": "शिक ",
    "4155": "होणाऱ्या ",
    "4156": "सिनेमा ",
    "4157": "जे, ",
    "4158": "शक्ती ",
    "4159": "जाळ",
    "4160": "होते, ",
    "4161": "नक ",
    "4162": "घुस",
    "4163": "चा.\n\n",
    "4164": "काश",
    "4165": "ग्री",
    "4166": "दाचा ",
    "4167": "पर्याय ",
    "4168": "घोषणा",
    "4169": "धन",
    "4170": "माणू",
    "4171": "चा, ",
    "4172": "ट्रि",
    "4173": "अद्यापही ",
    "4174": "हाच ",
    "4175": "पोलिसांच्या ",
    "4176": "काहीच ",
    "4177": "लीला ",
    "4178": "क्षण",
    "4179": "वृत्तसं",
    "4180": "पाळ ",
    "4181": "ारी",
    "4182": "पटू ",
    "4183": "षि",
    "4184": "महिन्यात ",
    "4185": "णार असल्या",
    "4186": "वीर",
    "4187": "कायद्या",
    "4188": "फेक",
    "4189": "दररोज ",
    "4190": "केचे ",
    "4191": "लेखा",
    "4192": "सल्ला ",
    "4193": "अन",
    "4194": "नरेंद्र मोदी ",
    "4195": "या.\n\n",
    "4196": "खाजग",
    "4197": "परिषद ",
    "4198": " म्हट",
    "4199": "अधिक तपास कर",
    "4200": "प्रकारचे ",
    "4201": "जबर",
    "4202": "पुरस्कार",
    "4203": "दखल ",
    "4204": "15 ",
    "4205": "30 ",
    "4206": "वंश",
    "4207": "शिवाजी ",
    "4208": "क्कम ",
    "4209": "याबाबत",
    "4210": "आधु",
    "4211": "संप",
    "4212": "भूमिके",
    "4213": "मद ",
    "4214": "ऐकून ",
    "4215": "2017 ",
    "4216": "जाने",
    "4217": "णीसाठी ",
    "4218": "रड",
    "4219": "करताना ",
    "4220": "जप्",
    "4221": "ण्यात येईल.\n\n",
    "4222": "यंत्रणा ",
    "4223": "आणि इतर ",
    "4224": "सहाय",
    "4225": "सार्वजनिक ",
    "4226": "वाल",
    "4227": "असलेल",
    "4228": "वला.\n\n",
    "4229": "प्रकरण ",
    "4230": "भावना ",
    "4231": "ण्याची शक्यता आहे.\n\n",
    "4232": "विधान",
    "4233": "वरिष्ठ ",
    "4234": "25",
    "4235": " कशा",
    "4236": "वर्गा",
    "4237": "प्रसिद्ध",
    "4238": "ू शकते.\n\n",
    "4239": "सज्",
    "4240": "कर यांनी ",
    "4241": "जुळ",
    "4242": "प्रदेशात ",
    "4243": "शिवाय",
    "4244": "चम",
    "4245": " सै",
    "4246": "मैदा",
    "4247": "णीत ",
    "4248": "वतीने ",
    "4249": "चालना ",
    "4250": "त होणार आहे.\n\n",
    "4251": "जमीन ",
    "4252": "गा ",
    "4253": "प्रभाव ",
    "4254": "झार",
    "4255": "त्यावर",
    "4256": "अभिनंद",
    "4257": "ऊ शकते.\n\n",
    "4258": "पावसाने ",
    "4259": "एकमेकांना ",
    "4260": "लाचे ",
    "4261": "साग",
    "4262": "अका",
    "4263": "पहिल्यांदा",
    "4264": "यापैकी ",
    "4265": "तेचे ",
    "4266": "न-",
    "4267": " करत आहेत.\n\n",
    "4268": "इंदि",
    "4269": "इंदिरा ",
    "4270": "सदस्य ",
    "4271": "जवान ",
    "4272": "शही",
    "4273": " केल्यानंतर ",
    "4274": "लीही ",
    "4275": "प्रत्येकी ",
    "4276": "प्रां",
    "4277": "निर्णय घेतला.\n\n",
    "4278": " समि",
    "4279": "ेड",
    "4280": "अनि",
    "4281": "टॅ",
    "4282": "14",
    "4283": "दोष",
    "4284": "वती ",
    "4285": "खळ",
    "4286": "णासाठी ",
    "4287": "प्टे",
    "4288": "आंध्र ",
    "4289": "इट",
    "4290": "ची नोंद",
    "4291": "देवाचे ",
    "4292": "ांमधील ",
    "4293": " क्रिकेट",
    "4294": "बोध",
    "4295": " मांड",
    "4296": "अभिमान ",
    "4297": "ा, “",
    "4298": "आई ",
    "4299": "पाहा",
    "4300": "सविस्",
    "4301": "शाह",
    "4302": "आयपी",
    "4303": "दिली होती.\n\n",
    "4304": "कोणत्या ",
    "4305": "नला ",
    "4306": "ते की ",
    "4307": "राब",
    "4308": "अशी माहिती ",
    "4309": " मंड",
    "4310": "द्धा",
    "4311": "शिष",
    "4312": "परिसरातील ",
    "4313": "पाण्या",
    "4314": "च्या सं",
    "4315": "धम",
    "4316": "राजा",
    "4317": "सोनिया ",
    "4318": "उभे ",
    "4319": " करण्याचे ",
    "4320": "या सर्व ",
    "4321": "ते?\n\n",
    "4322": "न.\n\n",
    "4323": "संवाद साध",
    "4324": "सुदैवाने ",
    "4325": "महिल",
    "4326": "या प्रकरणाचा ",
    "4327": "हिंदी ",
    "4328": "मते ",
    "4329": "ल्याबद्दल ",
    "4330": "दिशेने ",
    "4331": "ग्रामीण ",
    "4332": "शपथ ",
    "4333": "तील काही ",
    "4334": "वित",
    "4335": "ओळख ",
    "4336": "ण दि",
    "4337": "नांचा ",
    "4338": "कातील ",
    "4339": "डीचा ",
    "4340": "जीवनात ",
    "4341": "वक्",
    "4342": "ठरव",
    "4343": " महिला ",
    "4344": "सरकारी ",
    "4345": "जागीच मृत्यू ",
    "4346": "होतात.\n\n",
    "4347": "डू ",
    "4348": "भाजपला ",
    "4349": "धावांची ",
    "4350": "परिवर्त",
    "4351": "ण्यात आले ",
    "4352": "र्थ ",
    "4353": "बॉली",
    "4354": "कर्नाट",
    "4355": "रच्या ",
    "4356": "इतरांना ",
    "4357": "ताल",
    "4358": "भारत-",
    "4359": "अधिकार ",
    "4360": "उर",
    "4361": "धिकारी ",
    "4362": "प्रवासी ",
    "4363": "नमूद",
    "4364": "ताळ",
    "4365": "त असतात.\n\n",
    "4366": "गुरु",
    "4367": "संश",
    "4368": "तिचे ",
    "4369": " केले आहेत.\n\n",
    "4370": "टीम",
    "4371": " मुंबई",
    "4372": "ज्ञ ",
    "4373": "यादव ",
    "4374": "कामे ",
    "4375": "अथवा ",
    "4376": "ल्ला ",
    "4377": "फाइ",
    "4378": " कोणत्या ",
    "4379": "मुद्र",
    "4380": "पाल ",
    "4381": "कुल",
    "4382": "शेतकऱ्यांना ",
    "4383": "विष्ट",
    "4384": "ला जातो.\n\n",
    "4385": "वर्षा",
    "4386": "सुट",
    "4387": "पदार्थ ",
    "4388": "सोडून ",
    "4389": "अतिरिक्त ",
    "4390": "जात नाही.\n\n",
    "4391": "राजधा",
    "4392": "ू आणि ",
    "4393": "आणि मी ",
    "4394": "विद्यमान ",
    "4395": "जगातील सर्वात ",
    "4396": "दुरु",
    "4397": "22 ",
    "4398": "ीच ",
    "4399": "श्री ",
    "4400": "ु शक",
    "4401": "ल, ",
    "4402": "दश",
    "4403": "शिवसेनेचे ",
    "4404": "अंदाज ",
    "4405": "स्टार ",
    "4406": "ता आ",
    "4407": "यल ",
    "4408": "ण्यास नकार ",
    "4409": "विषयक ",
    "4410": "खास ",
    "4411": "माच्या ",
    "4412": "हृद",
    "4413": "टर्",
    "4414": "नेहमीच ",
    "4415": "काचे ",
    "4416": "होत्",
    "4417": "या सर्व",
    "4418": "शस्त्र",
    "4419": "पंच",
    "4420": "भव",
    "4421": "स्वतःच्या ",
    "4422": "क्शन ",
    "4423": " कशी ",
    "4424": "ठरेल.\n\n",
    "4425": "साधारण",
    "4426": "ic",
    "4427": "सूचना ",
    "4428": "अडथ",
    "4429": "णार?\n\n",
    "4430": "तल",
    "4431": "धक्का ",
    "4432": "स्थानि",
    "4433": "मदतीने ",
    "4434": "\n\nहा ",
    "4435": "थि",
    "4436": "निकाला",
    "4437": "करो",
    "4438": "संद",
    "4439": "जीत ",
    "4440": "बाजार ",
    "4441": "बाजारपे",
    "4442": "केले जा",
    "4443": "तारी",
    "4444": "यची ",
    "4445": "माने ",
    "4446": "co",
    "4447": "मोहि",
    "4448": " करावा लाग",
    "4449": "फ्रा",
    "4450": "वर आ",
    "4451": "श्मीर ",
    "4452": "अवलंबून ",
    "4453": "देतो.\n\n",
    "4454": "दिसणार आहे.\n\n",
    "4455": "अचा",
    "4456": "ंडी",
    "4457": "वेगाने ",
    "4458": "हा चित्रपट ",
    "4459": "जवळच्या ",
    "4460": "यरु",
    "4461": "गार ",
    "4462": "माणूस ",
    "4463": "कोणालाही ",
    "4464": "रंगा",
    "4465": "णां",
    "4466": "तसे ",
    "4467": "बऱ्या",
    "4468": "सोशल मीडि",
    "4469": "डोक",
    "4470": "नेच ",
    "4471": "मे ",
    "4472": "लॉकडा",
    "4473": " सुधार",
    "4474": "राजपू",
    "4475": "रिया ",
    "4476": "आहे:\n\n",
    "4477": "या दोन ",
    "4478": "ब्रु",
    "4479": "अरविंद के",
    "4480": "मृत्यू झाला आहे.\n\n",
    "4481": "शिक्षक ",
    "4482": "िंग, ",
    "4483": "फुट",
    "4484": "रोग",
    "4485": "तुर",
    "4486": "वाढत आहे.\n\n",
    "4487": "सन्मान",
    "4488": "अपेक्षित ",
    "4489": "चाचणी ",
    "4490": "सच्या ",
    "4491": "जबरद",
    "4492": "सर्वां",
    "4493": "सोबत",
    "4494": "जिल्हा",
    "4495": "इस्ला",
    "4496": "मिळाला ",
    "4497": "नियु",
    "4498": "दास ",
    "4499": "यातून ",
    "4500": "फिर्या",
    "4501": " कसे ",
    "4502": "उच्च",
    "4503": "नसल्याचे ",
    "4504": "ण आफ्रि",
    "4505": "प्रकल्पा",
    "4506": "प्रणाल",
    "4507": "े,",
    "4508": "वैयक्तिक ",
    "4509": "लाकार",
    "4510": "हजे",
    "4511": "डॉक्टर ",
    "4512": "त्ता ",
    "4513": "याविषयी ",
    "4514": "े?\n\n",
    "4515": "अर्ध",
    "4516": "देशीर ",
    "4517": "व्यवहार",
    "4518": "होतो",
    "4519": "एस. ",
    "4520": "चेहरा ",
    "4521": "गल ",
    "4522": "नही ",
    "4523": "राष्ट्राध्यक्ष ",
    "4524": "वर्ध",
    "4525": "वेक्ष",
    "4526": "यचा ",
    "4527": "फिल्",
    "4528": "ट्यू",
    "4529": "इतके ",
    "4530": "शुल्",
    "4531": "भीती ",
    "4532": "प्रगती ",
    "4533": "शक्य",
    "4534": "जिवंत ",
    "4535": "राहुल गांधी यांनी ",
    "4536": "कसा ",
    "4537": "प्रदर्श",
    "4538": "निर्मला ",
    "4539": "निमित्ताने ",
    "4540": "मुस्लि",
    "4541": "प्रदेशाध्यक्ष ",
    "4542": "चंद्रकांत पाटील ",
    "4543": "फस",
    "4544": "वणुकी",
    "4545": "निर्णय घे",
    "4546": "थोड",
    "4547": "णार नाही ",
    "4548": "नैसर्",
    "4549": "नैसर्गिक ",
    "4550": "अरु",
    "4551": "ांतर",
    "4552": "गाडी ",
    "4553": "भरव",
    "4554": "काय आहे?\n\n",
    "4555": "अक्षय कुमार",
    "4556": "हरिया",
    "4557": "ीही ",
    "4558": "नू",
    "4559": "निर्णय घेतला आहे.\n\n",
    "4560": "पार्श्",
    "4561": "पार्श्व",
    "4562": " कार्यक्रम ",
    "4563": "ही एक ",
    "4564": "अमेरिकन ",
    "4565": "ंच",
    "4566": "अधिकाऱ्या",
    "4567": "कोणताही ",
    "4568": "धार्",
    "4569": "हळा ",
    "4570": "’ या ",
    "4571": "बरोबर",
    "4572": "ांती ",
    "4573": ".”\n\n",
    "4574": "श्वर",
    "4575": "ता?\n\n",
    "4576": "कदाचित ",
    "4577": "असाव",
    "4578": "प्रश्न विचार",
    "4579": "विसर",
    "4580": "सूच",
    "4581": "बलात्कार",
    "4582": "देवाने ",
    "4583": "झालेली नाही.\n\n",
    "4584": "ठोर ",
    "4585": "कबुली ",
    "4586": "संचालक ",
    "4587": "गोवा ",
    "4588": "प्टेंबर ",
    "4589": "अण",
    "4590": "स्पे",
    "4591": "शेती ",
    "4592": "बॉम्",
    "4593": "१-",
    "4594": "टक्क्यां",
    "4595": "घाबर",
    "4596": "न्या ",
    "4597": "गाठ",
    "4598": "परमेश्वराने ",
    "4599": "हिंसा",
    "4600": "पूर्वीच ",
    "4601": "आश्वास",
    "4602": "महत्व",
    "4603": "लस ",
    "4604": "उच्च ",
    "4605": "णे.\n\n",
    "4606": "भेटी",
    "4607": "सविस्तर ",
    "4608": "स्पर्धा ",
    "4609": "मेंढ",
    "4610": "दी अरे",
    "4611": "दी अरेबि",
    "4612": "निवडणूक लढव",
    "4613": "बेल ",
    "4614": "एकत्रित ",
    "4615": "लिक",
    "4616": "ेली नाही.\n\n",
    "4617": "१९९",
    "4618": "अर्थमंत्री ",
    "4619": "तारा",
    "4620": "पाठी",
    "4621": "खल",
    "4622": "दिवसी",
    "4623": "हे सर्व ",
    "4624": ". स",
    "4625": " मिळेल.\n\n",
    "4626": "\n\nतर ",
    "4627": "सीसीटीव्ही ",
    "4628": "ेत.\n\n",
    "4629": "खट",
    "4630": "तब्बल ",
    "4631": "वृत्त ",
    "4632": "वीर ",
    "4633": "टीम इंडि",
    "4634": "गंभीर जखमी ",
    "4635": "चात ",
    "4636": "गुप्",
    "4637": "सुख",
    "4638": "तुमचा ",
    "4639": "तरतू",
    "4640": "दीच्या ",
    "4641": " मॅ",
    "4642": "यहोवाच्या ",
    "4643": "निर",
    "4644": "ध्व",
    "4645": "न्यायमूर्",
    "4646": "ठार\n\n",
    "4647": "ली\n\n",
    "4648": "कोणीही ",
    "4649": "प्रभ",
    "4650": "जेणे",
    "4651": "च्या कार",
    "4652": "म्स ",
    "4653": "सामन्या",
    "4654": "नेल",
    "4655": ". मी ",
    "4656": "होतील.\n\n",
    "4657": "आणि ते ",
    "4658": " मोदी",
    "4659": "मिळना",
    "4660": "बच्च",
    "4661": "ंय.\n\n",
    "4662": "सभा",
    "4663": "सुल",
    "4664": "प्रवक्",
    "4665": "असली ",
    "4666": " काम ",
    "4667": "दित ",
    "4668": "वाट ",
    "4669": "बाब ",
    "4670": "वी, ",
    "4671": "आवाज ",
    "4672": "रक्कम ",
    "4673": "महत्त्वाचे ",
    "4674": "केरळ",
    "4675": "मधल्या ",
    "4676": "कर यांच्या ",
    "4677": "नॅशनल ",
    "4678": "मुंबई : ",
    "4679": "बॉलीवू",
    "4680": "देताना ",
    "4681": "निघाल",
    "4682": " संरक्ष",
    "4683": "40 ",
    "4684": "तालु",
    "4685": "रज",
    "4686": "करात ",
    "4687": "पुस्तक ",
    "4688": "खालील",
    "4689": "निलंब",
    "4690": "न करण्यात आ",
    "4691": "विभागाचे ",
    "4692": "ल्या होत्या.\n\n",
    "4693": "गीत ",
    "4694": "राजकीय",
    "4695": "दोघांमध्ये ",
    "4696": " करण्याचा ",
    "4697": "तिच्यावर ",
    "4698": "प्रेक्ष",
    "4699": "हळू",
    "4700": "ब्रे",
    "4701": " क्षेत्र",
    "4702": "फेरीत ",
    "4703": "पौलाने ",
    "4704": "ऐवजी ",
    "4705": "इलेक्",
    "4706": "गावा",
    "4707": "नौ",
    "4708": "ले: “",
    "4709": "त नाही ",
    "4710": "तुक",
    "4711": "ट्विटरवर ",
    "4712": "महत्त्वाच्या ",
    "4713": "त्त ",
    "4714": "दुसरी ",
    "4715": "तुरु",
    "4716": "अली ",
    "4717": "तो\n\n",
    "4718": "आठ ",
    "4719": "राजे ",
    "4720": "करायची ",
    "4721": "ले जाते.\n\n",
    "4722": "घटनेची माहिती मिळताच ",
    "4723": "ांतील ",
    "4724": "प्रत्युत्तर ",
    "4725": "वेळा",
    "4726": "पोहच",
    "4727": "दोघे",
    "4728": "दीप",
    "4729": "आयुष्य ",
    "4730": "माहित ",
    "4731": " समोर ",
    "4732": "बळी ",
    "4733": "पत्नी",
    "4734": "मर ",
    "4735": "ठेवा.\n\n",
    "4736": "साथ",
    "4737": "पायाभूत ",
    "4738": "इन्स्टा",
    "4739": "व्यावसायिक ",
    "4740": "an",
    "4741": "एस ",
    "4742": "ष्ण ",
    "4743": "सृ",
    "4744": "सृष्ट",
    "4745": "नक्की",
    "4746": "गेल्या काही दिवसांपासून ",
    "4747": "गोंधळ ",
    "4748": " कधी ",
    "4749": "लग्न ",
    "4750": "आत ",
    "4751": "बस ",
    "4752": "-(तरुण ",
    "4753": "विश्वास",
    "4754": "या कार्यक्रमा",
    "4755": "सर्वोत्तम ",
    "4756": "[ ",
    "4757": "व्यक्त केली.\n\n",
    "4758": "मानव",
    "4759": "नची ",
    "4760": "क्षमता ",
    "4761": "प्रग",
    "4762": "खर्चा",
    "4763": "प्रकारा",
    "4764": "रुग्ण ",
    "4765": "बऱ्‍",
    "4766": "आभार",
    "4767": "वर विश्वास ",
    "4768": "आभार ",
    "4769": "आभार मान",
    "4770": "या योजने",
    "4771": "अस्ति",
    "4772": "खरच ",
    "4773": "उमेदवारी ",
    "4774": "प्रकाश",
    "4775": "वाघ",
    "4776": "न (",
    "4777": "देश आहे.\n\n",
    "4778": "जास्",
    "4779": "त्यांवर ",
    "4780": "ख्रिश्‍च",
    "4781": "तुझ्या ",
    "4782": "पुढील",
    "4783": "ण आहे.\n\n",
    "4784": "काळजी घे",
    "4785": "णे गरजेचे ",
    "4786": "वारं",
    "4787": "नवीन",
    "4788": "्यांसाठी ",
    "4789": "शरद ",
    "4790": "शुभेच्छा ",
    "4791": "बंदो",
    "4792": "बंदोब",
    "4793": "ला असून ",
    "4794": "घसर",
    "4795": "तपासा",
    "4796": "मिळव",
    "4797": "s) ",
    "4798": "रस्त्यावर ",
    "4799": "राष्ट्रवादीचे ",
    "4800": "शेतकऱ्यांनी ",
    "4801": "पाऊस पड",
    "4802": "स स",
    "4803": "ंदे ",
    "4804": "।\n\n",
    "4805": "तो आणि ",
    "4806": "ट्रोल ",
    "4807": "दरात ",
    "4808": "लिं",
    "4809": "दिल्लीच्या ",
    "4810": "सीमे",
    "4811": "बुद्ध",
    "4812": "गम",
    "4813": "शुक्र",
    "4814": "क्रमांक ",
    "4815": "ॅक्",
    "4816": "शाळेत ",
    "4817": "? ”\n\n",
    "4818": "अधिकृत ",
    "4819": "तशी ",
    "4820": " मध",
    "4821": "मिळाली.\n\n",
    "4822": "तेथील ",
    "4823": "ध्ये",
    "4824": "करुन ",
    "4825": "करण्यात आला.\n\n",
    "4826": "सरकारच्या ",
    "4827": "यरुश",
    "4828": "यरुशले",
    "4829": "अहवाला",
    "4830": "ल्स ",
    "4831": "खरा ",
    "4832": "तशी",
    "4833": " कोठ",
    "4834": "कवा",
    "4835": "झळक",
    "4836": "ऑक्टो",
    "4837": "बुध",
    "4838": "आली.\n\n",
    "4839": "वेगवेगळ्या ",
    "4840": " कामे ",
    "4841": "फरार ",
    "4842": "पाकिस्तानच्या ",
    "4843": "चक्र",
    "4844": "सतत ",
    "4845": "अरविंद केजरीवाल ",
    "4846": "त्वात ",
    "4847": "दीपिका प",
    "4848": "रिझ",
    "4849": " क्रमांकावर ",
    "4850": "व्हॉ",
    "4851": "फत ",
    "4852": "शुद्ध ",
    "4853": "2019 ",
    "4854": "सेना ",
    "4855": "खाजगी ",
    "4856": "नागरिकांना ",
    "4857": "समर्थ",
    "4858": "कर्ष",
    "4859": "मुंबईतील ",
    "4860": "सरकारचा ",
    "4861": "न्यायालयात ",
    "4862": "शे ",
    "4863": "ली असून ",
    "4864": "1.",
    "4865": "मानि",
    "4866": "25 ",
    "4867": "खूपच ",
    "4868": "ी?\n\n",
    "4869": "देशाचे ",
    "4870": "गुन्हा नोंद",
    "4871": "द्धि",
    "4872": "कडे लक्ष ",
    "4873": "वाई ",
    "4874": "कोरोना ",
    "4875": "विण्यासाठी ",
    "4876": "ून लाव",
    "4877": "चिंता ",
    "4878": "लांब",
    "4879": "पंतप्रधान नरेंद्र मोदी यांच्या अध्यक्षतेखाली ",
    "4880": "देशमुख",
    "4881": "म्मद ",
    "4882": "संघटने",
    "4883": "पात्र ",
    "4884": "दक्षिण आफ्रि",
    "4885": "जप्त करण्यात आ",
    "4886": "यू ",
    "4887": "ही आग ",
    "4888": "लागली ",
    "4889": "वैद्यकीय",
    "4890": "कोविड-",
    "4891": "हजेरी ",
    "4892": "हजेरी लाव",
    "4893": "हिमा",
    "4894": "होईल ",
    "4895": "जाणार आहे.\n\n",
    "4896": "दिले आहेत.\n\n",
    "4897": "नसून ",
    "4898": "स्टो",
    "4899": "हट",
    "4900": "झाल्या आहेत.\n\n",
    "4901": "तीच ",
    "4902": "जे काही ",
    "4903": "असला ",
    "4904": "मीटर ",
    "4905": "वापर ",
    "4906": "टेलि",
    "4907": "जित ",
    "4908": "इन्स्टि",
    "4909": " कामगार",
    "4910": " महिल",
    "4911": "णार्‍",
    "4912": "यांवर ",
    "4913": "आईवडिल",
    "4914": "तेंड",
    "4915": "कोर्टा",
    "4916": "मता",
    "4917": "यश मिळव",
    "4918": "हनत ",
    "4919": "मुले ",
    "4920": "नुसार, ",
    "4921": "प्रभावी ",
    "4922": "मोबाईल ",
    "4923": "संशोधन ",
    "4924": " केलं.\n\n",
    "4925": "दिवसें",
    "4926": "कार्याल",
    "4927": "जीवन",
    "4928": "िमंड",
    "4929": "जुलै",
    "4930": "2018 ",
    "4931": "कामा",
    "4932": "am",
    "4933": ".\n\nमात्र ",
    "4934": "या घटनेत ",
    "4935": "वाढ झाली आहे.\n\n",
    "4936": "वृद्ध ",
    "4937": "१५ ",
    "4938": "न करा",
    "4939": "” — ",
    "4940": "आकड",
    "4941": "वेगळा ",
    "4942": "ग्रामस्थ",
    "4943": "णं",
    "4944": "विज्ञान आणि ",
    "4945": "चा वापर",
    "4946": "देशाचा ",
    "4947": "सर्वच ",
    "4948": " कल",
    "4949": "सूत्रांनी ",
    "4950": "अटक केली आहे.\n\n",
    "4951": " संजय ",
    "4952": "सामंज",
    "4953": "वासी ",
    "4954": "एफसी ",
    "4955": "पर्यट",
    "4956": "णे गरजेचे आहे.\n\n",
    "4957": "असो",
    "4958": "ी-",
    "4959": "शहीद ",
    "4960": "झाला नाही.\n\n",
    "4961": "दुखापत ",
    "4962": "कोणतेही ",
    "4963": "प्रमाणावर ",
    "4964": "स्तान ",
    "4965": "केल्या.\n\n",
    "4966": "हक्",
    "4967": "श्रे",
    "4968": "वली ",
    "4969": "14 ",
    "4970": "आंबेड",
    "4971": "जयं",
    "4972": "ेच",
    "4973": "तेची ",
    "4974": "सीए",
    "4975": "व्याया",
    "4976": " क्षम",
    "4977": "शक्",
    "4978": "तेच",
    "4979": "रवाना ",
    "4980": "आणखी एक ",
    "4981": "नोंदव",
    "4982": "त्यानुसार ",
    "4983": "यावर्षी ",
    "4984": "तारा ",
    "4985": "लाभ",
    "4986": "समर्",
    "4987": "” असे ",
    "4988": "यांनी म्हटले आहे.\n\n",
    "4989": "शील",
    "4990": "रह",
    "4991": "काही दिवसां",
    "4992": "जण जखमी ",
    "4993": "ण्यात आली आहे.\n\n",
    "4994": "जप्त ",
    "4995": "मिळाली ",
    "4996": "११ ",
    "4997": "ेची ",
    "4998": "ूत ",
    "4999": "ल्स",
    "5000": "चा हा ",
    "5001": "लोकांची ",
    "5002": "घेत आहेत.\n\n",
    "5003": "षा",
    "5004": "तुलना ",
    "5005": "निर्मला सी",
    "5006": "विराट कोहली",
    "5007": "तिसरा ",
    "5008": "ता येत नाही.\n\n",
    "5009": "मुलांच्या ",
    "5010": "धीर ",
    "5011": "स्वयं",
    "5012": ", स",
    "5013": "बार ",
    "5014": "मंत ",
    "5015": "प्रतिक्रि",
    "5016": "वरित ",
    "5017": " मार",
    "5018": "नसेल ",
    "5019": "भरातील ",
    "5020": "यॉर्",
    "5021": "नाकार",
    "5022": " काय?\n\n",
    "5023": "कॅमे",
    "5024": "अक",
    "5025": "नावे ",
    "5026": "्या, ",
    "5027": "चुर",
    "5028": "जगभरात ",
    "5029": "कृष्ट ",
    "5030": "रंज",
    "5031": "सला",
    "5032": "नव्या",
    "5033": "तुलनेत ",
    "5034": "मेंट",
    "5035": "यांचं ",
    "5036": "उत्पन्न ",
    "5037": "संस्",
    "5038": " क्रमांक ",
    "5039": "आणि मु",
    "5040": "नाही.",
    "5041": "या संदर्भात ",
    "5042": "हवा ",
    "5043": "ताप ",
    "5044": "तुकड",
    "5045": "न्यायमूर्ती ",
    "5046": "चीच ",
    "5047": "भारतीय संघ",
    "5048": "बारा",
    "5049": "भाजपा ",
    "5050": "युरो",
    "5051": "आफ्रि",
    "5052": "निवडणुकीच्या ",
    "5053": "अडचणी",
    "5054": "को ",
    "5055": "भूकं",
    "5056": "परीक्ष",
    "5057": "मिळनाडू",
    "5058": "न्याची ",
    "5059": "या अपघातात ",
    "5060": "सभा ",
    "5061": "निदर्श",
    "5062": "दक्षिण",
    "5063": "अटक ",
    "5064": "नव्हतं.\n\n",
    "5065": "उत्साह",
    "5066": "धन्य",
    "5067": "ळीच्या ",
    "5068": "होण्यासाठी ",
    "5069": "पाहिजे ",
    "5070": "किमान ",
    "5071": "याशी ",
    "5072": "मट",
    "5073": "गोव्या",
    "5074": "उपचार सुरू आहेत.\n\n",
    "5075": "आश्चर",
    "5076": "ताला ",
    "5077": "अधिक",
    "5078": "ण आणि ",
    "5079": "ऑफ इंडि",
    "5080": "ती, ",
    "5081": "क्रमाला ",
    "5082": "दिले आहे.\n\n",
    "5083": "तथा",
    "5084": "पैल",
    "5085": "अपय",
    "5086": "धडक ",
    "5087": "स्थापना ",
    "5088": "निघून ",
    "5089": "वृद्ध",
    "5090": "शक्‍",
    "5091": "फळ",
    "5092": "तळ",
    "5093": "आयुष्यात ",
    "5094": "स्थापन कर",
    "5095": "पुष्",
    "5096": "ालिकेत ",
    "5097": "घेतली आहे.\n\n",
    "5098": "बॅनर्जी ",
    "5099": " सिने",
    "5100": "ज्येष्ठ नेते ",
    "5101": "संकट",
    "5102": "देण्याची ",
    "5103": "हवामान ",
    "5104": "10",
    "5105": "ी आणि ",
    "5106": "सरा",
    "5107": " सोड",
    "5108": "बहि",
    "5109": "अमेरिका ",
    "5110": "पुनरु",
    "5111": "महात्मा ",
    "5112": "येशूला ",
    "5113": "सुरुवातीला ",
    "5114": "अंध",
    "5115": "लाइन ",
    "5116": "डीत ",
    "5117": "आर ",
    "5118": "र्ड ",
    "5119": "द्दी",
    "5120": "जन्म",
    "5121": "राज्यसभेत ",
    "5122": "खरी ",
    "5123": "?\"\n\n",
    "5124": "अर्पण",
    "5125": "रित्या ",
    "5126": "खर्च",
    "5127": "्यक ",
    "5128": "वैद्यकीय ",
    "5129": "सहकार्य",
    "5130": "ण्यात आला आहे.\n\n",
    "5131": "जमिनी",
    "5132": "प्रशं",
    "5133": "इतिहासा",
    "5134": "सामान्य",
    "5135": "कशी ",
    "5136": "तात आणि ",
    "5137": "द्या.\n\n",
    "5138": "एकच ",
    "5139": "स्वतंत्र",
    "5140": "जंग",
    "5141": "तांना ",
    "5142": "?\n\nपण ",
    "5143": "इशार",
    "5144": "इशारा ",
    "5145": "रोम",
    "5146": "आशा ",
    "5147": "मित्र ",
    "5148": "जिथे ",
    "5149": "देऊ शक",
    "5150": "ट्या ",
    "5151": "रेड्",
    "5152": "ट्टी ",
    "5153": "विभागाने ",
    "5154": "इंग्रजी ",
    "5155": ",००० ",
    "5156": " कसोटी",
    "5157": "भारतीय संघा",
    "5158": "१२",
    "5159": "मुख्यमंत्री देवेंद्र फडणवीस ",
    "5160": "हे सर्व",
    "5161": "सामर्थ",
    "5162": "विश्वच",
    "5163": "विश्वचष",
    "5164": "विजेत",
    "5165": "अध्यक्षा ",
    "5166": "नाराय",
    "5167": "बाहेर पड",
    "5168": "असेल",
    "5169": "त्यापैकी ",
    "5170": "उदाहरणार्थ",
    "5171": "शिखर ",
    "5172": "लष्करा",
    "5173": "बॉलिवूडमध्ये ",
    "5174": "यंदा ",
    "5175": "इम",
    "5176": "मुद्",
    "5177": "कर्मचारी ",
    "5178": "व्यतिरिक्त ",
    "5179": "णीव ",
    "5180": "आज्ञा ",
    "5181": "संसदे",
    "5182": "सळधार ",
    "5183": "आणि सो",
    "5184": "दम",
    "5185": "प्ले",
    "5186": "त्यांच्यासाठी ",
    "5187": "-(तरुण भारत",
    "5188": "क-",
    "5189": "सांस्कृ",
    "5190": "यान ",
    "5191": " संबंध ",
    "5192": "आवश्यकता ",
    "5193": "ित केले.\n\n",
    "5194": "पानां",
    "5195": "पानांवरील ",
    "5196": "सौर ",
    "5197": "शालेय ",
    "5198": "सहभागी झाले होते.\n\n",
    "5199": "शाचा ",
    "5200": "वाटते.\n\n",
    "5201": "स्थाय",
    "5202": ".\n\nपण ",
    "5203": "घेतले.\n\n",
    "5204": "विकारा",
    "5205": "जबाबदार",
    "5206": "ळाला ",
    "5207": "यहोवाची ",
    "5208": "बरी ",
    "5209": "कृष्ट",
    "5210": "गाच्या ",
    "5211": "वा\n\n",
    "5212": "केश ",
    "5213": "द्‌",
    "5214": "देण्यात आली आहे.\n\n",
    "5215": "देण्यास ",
    "5216": "विश्‍वासू ",
    "5217": "थोडी ",
    "5218": "जाणार ",
    "5219": "दुब",
    "5220": "दृढ ",
    "5221": "लाचा ",
    "5222": "मारा",
    "5223": "जेएन",
    "5224": "झाले नाही.\n\n",
    "5225": "हिंदुस्थान",
    "5226": "एअर",
    "5227": "पुरस्कारा",
    "5228": "तलवार",
    "5229": "नशील ",
    "5230": "पोलिसांची ",
    "5231": "आत्म्या",
    "5232": "as",
    "5233": "\n\nपण ",
    "5234": "होता. ",
    "5235": "ण्याचा प्रयत्न",
    "5236": "प्रयोग",
    "5237": "साई",
    "5238": "गॅ",
    "5239": "क्रिय ",
    "5240": "डिझेल",
    "5241": "चे दर ",
    "5242": "ww",
    "5243": "अनुष्",
    "5244": "णार\n\n",
    "5245": "प्रियां",
    "5246": "पंजाब",
    "5247": "देण्यात ",
    "5248": "रल ",
    "5249": " कपूर ",
    "5250": "न्यू ",
    "5251": "च्चार",
    "5252": "या’ ",
    "5253": "अचानक ",
    "5254": "टाकून ",
    "5255": "माझं ",
    "5256": "हवी ",
    "5257": "यावरून ",
    "5258": "े. ",
    "5259": "वगळ",
    "5260": "देशभरात ",
    "5261": "हेही ",
    "5262": "तला",
    "5263": "असते ",
    "5264": "लक्षणे ",
    "5265": "संजय लीला ",
    "5266": "संजय लीला भ",
    "5267": "न्सा",
    "5268": " काळजी ",
    "5269": "समिती ",
    "5270": "नामध्ये ",
    "5271": "असल्याची माहिती ",
    "5272": " मतदार",
    "5273": "ट्टी",
    "5274": "फोटो आणि ",
    "5275": "चाहत्यांना ",
    "5276": "ऑक्टोबर ",
    "5277": " कंपनी",
    "5278": "१९ ",
    "5279": "स्य ",
    "5280": "बुधवारी ",
    "5281": "तणा",
    "5282": "वर\n\n",
    "5283": "ची घोषणा ",
    "5284": "दिल्लीत ",
    "5285": "दगड",
    "5286": "दीपिका पदु",
    "5287": "वर्षांच्या ",
    "5288": "ू नये.\n\n",
    "5289": " सुरुवात ",
    "5290": "महत्वाचे ",
    "5291": " माहिती ",
    "5292": "अभियां",
    "5293": "अभियांत्रि",
    "5294": "देवाण",
    "5295": "घेवा",
    "5296": "अल",
    "5297": "तपशील ",
    "5298": "लागू ",
    "5299": "रोजगार ",
    "5300": "ळक ",
    "5301": "समार",
    "5302": "भाजपचा ",
    "5303": "कच",
    "5304": "न केले ",
    "5305": "अटक करण्यात आ",
    "5306": " क्षमता ",
    "5307": "पुढच्या ",
    "5308": "टवर ",
    "5309": "वर टीका ",
    "5310": "तं?\n\n",
    "5311": "तिक",
    "5312": "ठाकू",
    "5313": " कार्यकारी ",
    "5314": "ड्यात ",
    "5315": "याशिवाय ",
    "5316": "पाकिस्तानला ",
    "5317": "नियुक्ती ",
    "5318": "समावेश",
    "5319": "वॉ",
    "5320": "स्त्र ",
    "5321": "प्रल",
    "5322": "वाचव",
    "5323": "आधुनिक ",
    "5324": "तानाच ",
    "5325": "स्तर",
    "5326": "वी लागते.\n\n",
    "5327": "राज ठाकरे ",
    "5328": "नागरिक ",
    "5329": "चकम",
    "5330": "करण्यात ",
    "5331": "लेखी ",
    "5332": "गाड्या ",
    "5333": "या गोष्टी",
    "5334": "नातून ",
    "5335": "्य आहे.\n\n",
    "5336": "व्यवस्थापन ",
    "5337": " संशोध",
    "5338": "ग्रस्त",
    "5339": "चल प्रदेश",
    "5340": "ला?\n\n",
    "5341": "दंड ",
    "5342": "अजित पवार",
    "5343": "बरेच ",
    "5344": "ई-",
    "5345": "प्राधा",
    "5346": "निती",
    "5347": "आरोग्या",
    "5348": "दीप ",
    "5349": "न्यायाधीश",
    "5350": "फेटाळून लाव",
    "5351": "असणाऱ्या ",
    "5352": "विरोधी पक्षनेते ",
    "5353": "पंक",
    "5354": "आधार कार्",
    "5355": "तास ",
    "5356": "खड",
    "5357": "डिजि",
    "5358": "कोणाला ",
    "5359": "गोळा ",
    "5360": "केचा ",
    "5361": "टाळा",
    "5362": "पावसामुळे ",
    "5363": "तेंडुल",
    "5364": "सज्ज ",
    "5365": "नगरसेवक ",
    "5366": "मिळालेल्या ",
    "5367": " कोर्टा",
    "5368": "राहतात.\n\n",
    "5369": "लोकांचा ",
    "5370": "ल्याचा ",
    "5371": "लहान",
    "5372": "रोजगार",
    "5373": "संस्था ",
    "5374": "इस्र",
    "5375": "तात. ",
    "5376": "साजरा ",
    "5377": "या दोघां",
    "5378": "शतक ",
    "5379": "ीवर ",
    "5380": "मध्ये, ",
    "5381": "काहीतरी ",
    "5382": "अखेर",
    "5383": "पटकाव",
    "5384": "दिवसेंदिवस ",
    "5385": "5.",
    "5386": "टी, ",
    "5387": "तेत ",
    "5388": "तील क",
    "5389": "थोडा ",
    "5390": "हवा.\n\n",
    "5391": "टायला ",
    "5392": "आधीच ",
    "5393": "इंध",
    "5394": "च सु",
    "5395": "शेतकर्",
    "5396": " करण्यास",
    "5397": "र्भा",
    "5398": "स्वत: ",
    "5399": "जणांचा मृत्यू ",
    "5400": "झाला असून ",
    "5401": "दुसरी",
    "5402": "‍या ",
    "5403": "ध्द ",
    "5404": "हित ",
    "5405": "विजयी ",
    "5406": "वैशिष्ट",
    "5407": "ऑगस्ट ",
    "5408": "पहिल्यांदाच ",
    "5409": ", सं",
    "5410": "रस्ते ",
    "5411": "कपूर ",
    "5412": "रक्त",
    "5413": "ट्रॉ",
    "5414": "ग्रॅ",
    "5415": "तोपर्यंत ",
    "5416": "ू इच्छि",
    "5417": "हे सगळ",
    "5418": "जवानांनी ",
    "5419": "क्रे",
    "5420": "टिक ",
    "5421": "अभ्यासा",
    "5422": "मान्यता ",
    "5423": "दुर्लक्ष",
    "5424": "म्हटले.\n\n",
    "5425": "नील ",
    "5426": "यम",
    "5427": "क को",
    "5428": "उत्स",
    "5429": "तिसऱ्या ",
    "5430": "षण",
    "5431": " सीबी",
    "5432": "सकाळ",
    "5433": "पासून",
    "5434": "नावर",
    "5435": "रापर्यंत ",
    "5436": "वाटा ",
    "5437": "कामगिरी ",
    "5438": " की, ",
    "5439": "करावी ",
    "5440": "वाटत नाही.\n\n",
    "5441": "हा निर्णय ",
    "5442": "यम ",
    "5443": "नरेंद्र मोदी",
    "5444": ": ३",
    "5445": "विशि",
    "5446": "विशिष्ट ",
    "5447": " केल्याने ",
    "5448": "ाने ",
    "5449": "आव्हान ",
    "5450": "या सिनेमा",
    "5451": "आयात ",
    "5452": "करीता ",
    "5453": "18 ",
    "5454": "ला,",
    "5455": "बातमी ",
    "5456": "बॉम्ब",
    "5457": "उपचार सुरु ",
    "5458": " केल्याचा ",
    "5459": "संबोध",
    "5460": "पित ",
    "5461": "देशाला ",
    "5462": "हिंसाचार",
    "5463": "बरीच ",
    "5464": "पाहायला मिळ",
    "5465": "पी. ",
    "5466": "दलाचे ",
    "5467": "ते आहे.\n\n",
    "5468": "वे लागले.\n\n",
    "5469": "तेने ",
    "5470": "झाल्या.\n\n",
    "5471": "दरा",
    "5472": "हाऊ",
    "5473": " कधीही ",
    "5474": "घटनास्थळा",
    "5475": "ऱया ",
    "5476": "बिया",
    "5477": "ण्यासाठी",
    "5478": "कोसळ",
    "5479": "द्राक्ष",
    "5480": "भागांमध्ये ",
    "5481": "एकदिवसी",
    "5482": "या बैठकीला ",
    "5483": "आहे. ”\n\n",
    "5484": "इराण",
    "5485": "प्रशिक्षक ",
    "5486": "गन ",
    "5487": "भौ",
    "5488": "अत्याचार",
    "5489": "साहेब ",
    "5490": "जाधव ",
    "5491": "नक्की ",
    "5492": "धावांनी ",
    "5493": "अनेक ठिकाणी ",
    "5494": "असलेली ",
    "5495": "शंका ",
    "5496": "अमेरिकेच्या ",
    "5497": "श्रद्ध",
    "5498": "इस्राए",
    "5499": " मिश्र",
    "5500": "चे नाव ",
    "5501": "उदाहर",
    "5502": "सातत्याने ",
    "5503": "माफी ",
    "5504": "चा अ",
    "5505": " कॉंग्रे",
    "5506": "सोम",
    "5507": "आहेत आणि ",
    "5508": "काची ",
    "5509": " केलं ",
    "5510": "निधन ",
    "5511": "सोनिया गांधी ",
    "5512": "नव्याने ",
    "5513": "मुलगा",
    "5514": "वार आहे.\n\n",
    "5515": "कच्या ",
    "5516": "इंटर",
    "5517": "पत्रक ",
    "5518": "आजही ",
    "5519": "आग",
    "5520": "वाच्या ",
    "5521": "दिक ",
    "5522": "ले नाहीत.\n\n",
    "5523": "दृष्टि",
    "5524": "दृष्टिको",
    "5525": "ड्रो",
    "5526": "महत्त्व ",
    "5527": "यांची भेट ",
    "5528": "खां",
    "5529": "सर्गा",
    "5530": "क्सि",
    "5531": "ची मागणी ",
    "5532": "मंदिर ",
    "5533": "उपां",
    "5534": "सत्ता ",
    "5535": " मोठा ",
    "5536": "कथा ",
    "5537": "या प्रश्",
    "5538": "वापरकर्",
    "5539": "महत्त्वाचा ",
    "5540": "ारावर ",
    "5541": "दुपार",
    "5542": "टमध्ये ",
    "5543": "असेल तर ",
    "5544": "ही घटना ",
    "5545": "वरा ",
    "5546": "काचा ",
    "5547": "लगेच ",
    "5548": "प्रस्ताव",
    "5549": "आहे.\n\nहे ",
    "5550": "लबा",
    "5551": "30",
    "5552": "उमट",
    "5553": "करण्यात आली.\n\n",
    "5554": "नोकर",
    "5555": "सोहळा ",
    "5556": "तीव्र",
    "5557": "श्यक ",
    "5558": "मिळेल",
    "5559": "व्हायरल होत आहे.\n\n",
    "5560": "सर्वात मोठा ",
    "5561": "तथापि",
    "5562": "अयो",
    "5563": "न्यूझीलंड",
    "5564": "लेला आहे.\n\n",
    "5565": "ज्ञात ",
    "5566": "पासूनच ",
    "5567": "देण्यात आली.\n\n",
    "5568": "्ड",
    "5569": "पदाची ",
    "5570": "सहायक ",
    "5571": "मोज",
    "5572": "प्रारंभ",
    "5573": "पाड",
    "5574": "स्थानावर ",
    "5575": "नेमण",
    "5576": "यासाठी",
    "5577": "छत्ती",
    "5578": "छत्तीसग",
    "5579": "बॉलीवूड ",
    "5580": "साध्य",
    "5581": "कार्यकर्",
    "5582": "तामिळनाडू",
    "5583": "%s",
    "5584": "हता ",
    "5585": "रजनी",
    "5586": "घेऊ",
    "5587": "di",
    "5588": "ट्स ",
    "5589": "मथ",
    "5590": "अधिकाऱ्यांना ",
    "5591": "माझ्याकडे ",
    "5592": "दे ",
    "5593": "लोकसभा मतदारसंघातून ",
    "5594": "ठेवा",
    "5595": " कुटुंबा",
    "5596": "अलि",
    "5597": "एक्स",
    "5598": "पत्ता ",
    "5599": "लोकांमध्ये ",
    "5600": "ंगा ",
    "5601": "चूक ",
    "5602": "अन्न",
    "5603": " काश्मीर",
    "5604": "शी संबंधित ",
    "5605": "पटेल ",
    "5606": "जन्म ",
    "5607": "हळू ",
    "5608": "डब्",
    "5609": "डब्ल",
    "5610": "पुल",
    "5611": "ार्थ ",
    "5612": "ण्या ",
    "5613": "निकाल ",
    "5614": "तब",
    "5615": "ली. ",
    "5616": "लोकशाही ",
    "5617": "सर्व्ह",
    "5618": "करा.\n\n",
    "5619": "किंग",
    "5620": "हा अपघात ",
    "5621": "सैनिक ",
    "5622": "झालेले नाही.\n\n",
    "5623": "येऊ ",
    "5624": "सुरक्षित ",
    "5625": "शल मि",
    "5626": "इत्या",
    "5627": "स्थ ",
    "5628": "देवाची ",
    "5629": "न्याय ",
    "5630": "व्यवहार ",
    "5631": "अर्थाने ",
    "5632": "सेवे",
    "5633": "ची शिक्षा ",
    "5634": "ले जात ",
    "5635": "ीकरण ",
    "5636": "आहोत",
    "5637": "or",
    "5638": "नियमशास्त्र",
    "5639": "जित",
    "5640": "परे",
    "5641": "नांच्या ",
    "5642": "त्यांच्या प",
    "5643": "तं ",
    "5644": "सध्याच्या ",
    "5645": "पूर्वक ",
    "5646": "बाबती",
    "5647": "संख्ये",
    "5648": "असणार आहे.\n\n",
    "5649": "रमे",
    "5650": "तेच्या ",
    "5651": "राज्याचे ",
    "5652": "स्मार्",
    "5653": "जाहि",
    "5654": " करार",
    "5655": "पुन्हा एकदा ",
    "5656": "बनवि",
    "5657": "केशन ",
    "5658": "सुवार्",
    "5659": "तो: “",
    "5660": "राखून ",
    "5661": "सामो",
    "5662": "धर्म ",
    "5663": ". कारण ",
    "5664": "विद्यु",
    "5665": "इंद",
    "5666": "| ",
    "5667": "श्या",
    "5668": "दिवा",
    "5669": "संकेत",
    "5670": "दोघेही ",
    "5671": "ग्राम ",
    "5672": " कर्मचा",
    "5673": "सैन्या",
    "5674": "आला ",
    "5675": "बहुते",
    "5676": "ाच ",
    "5677": "स्वप्",
    "5678": "उपमुख्यमंत्री ",
    "5679": "माध्यमां",
    "5680": "नारायण ",
    "5681": "य़ा ",
    "5682": "पाहून ",
    "5683": "कृषी ",
    "5684": "ांमुळे ",
    "5685": "वेब",
    "5686": "फै",
    "5687": "प्रतिमा ",
    "5688": "पोलीसां",
    "5689": "पडताळ",
    "5690": "न खान ",
    "5691": "दिशा",
    "5692": "भिं",
    "5693": "अनुप",
    "5694": "तत्त्व",
    "5695": "द्वि",
    "5696": "यहोवाला ",
    "5697": "वसु",
    "5698": "रिली",
    "5699": "ट्विटर ",
    "5700": "घेण्यासाठी ",
    "5701": "कोणा",
    "5702": "ंगात ",
    "5703": "कुटुंबा",
    "5704": "पाकिस्तानी ",
    "5705": "सृष्टी",
    "5706": "मुलीला ",
    "5707": "साहाय",
    "5708": "असेल, ",
    "5709": "ण्याकरता ",
    "5710": "बाजारात ",
    "5711": "मुसळधार ",
    "5712": "डोंग",
    "5713": " सिंह यांनी ",
    "5714": "पुरुष",
    "5715": "मतदा",
    "5716": "तक्रार दाखल",
    "5717": "़्‍या ",
    "5718": "लाल ",
    "5719": "आणि प्रसार",
    "5720": "ग्री ",
    "5721": "हे एक ",
    "5722": "राज्यमंत्री ",
    "5723": "२५ ",
    "5724": "महत्त्व",
    "5725": "फर्",
    "5726": "पासून दूर ",
    "5727": "१९८",
    "5728": "-(तरुण भारत), ",
    "5729": "घेता ",
    "5730": "काय आहे ",
    "5731": "नचे ",
    "5732": "मजबूत ",
    "5733": "आहेत, असे ",
    "5734": "ता येईल.\n\n",
    "5735": "संवादा",
    "5736": "त्यातील ",
    "5737": "सैता",
    "5738": "च्या का",
    "5739": "वर्षांपासून ",
    "5740": "सेवा कर",
    "5741": "खरं ",
    "5742": "अंबा",
    "5743": "तेश ",
    "5744": "घेतला ",
    "5745": "आमच्याकडे ",
    "5746": "लगे",
    "5747": "लगेच",
    "5748": "राचे ",
    "5749": " सोडून ",
    "5750": "आरोपींना ",
    "5751": "पोलिसांनी अटक",
    "5752": "टप्प्यात ",
    "5753": "परिणामी ",
    "5754": "ल\n\n",
    "5755": "कंपनी ",
    "5756": "उद्दिष्ट",
    "5757": "ही घटना घड",
    "5758": "शर्थ",
    "5759": "प्रयत्न सुरु ",
    "5760": " मुख्यमंत्री ",
    "5761": "17 ",
    "5762": "रोख ",
    "5763": "तेय.\n\n",
    "5764": "वेदनशील ",
    "5765": "सत्य",
    "5766": "ण्यास मदत ",
    "5767": "१८",
    "5768": "स्थापने",
    "5769": "हात",
    "5770": "दाखल करण्यात आले आहे.\n\n",
    "5771": "% ",
    "5772": "आवड ",
    "5773": "निवेद",
    "5774": "पुण्या",
    "5775": "विधानसभा मतदार",
    "5776": "दिसून ये",
    "5777": "त असे.\n\n",
    "5778": "फूट ",
    "5779": "उंची",
    "5780": "कळ ",
    "5781": "ावा ",
    "5782": "करण्यात येत आहे.\n\n",
    "5783": "एकाच ",
    "5784": "राहात ",
    "5785": "दिसत आहे.\n\n",
    "5786": "श्वास ",
    "5787": "ची गोष्ट ",
    "5788": "पेट्रोल ",
    "5789": "तारीख ",
    "5790": "लं नाही.\n\n",
    "5791": "ct",
    "5792": "ळव",
    "5793": "फ्रान्स",
    "5794": "संख्या",
    "5795": "तो आहे.\n\n",
    "5796": "आणि काँग्रेस",
    "5797": "पद ",
    "5798": "प्रतिनिधी ",
    "5799": "युग",
    "5800": "भात ",
    "5801": "तसेच, ",
    "5802": "वास्तव ",
    "5803": "करू शक",
    "5804": "मूलभूत ",
    "5805": "वातावरण निर्माण ",
    "5806": "रोहित शर्मा ",
    "5807": "घोषणाबाजी ",
    "5808": "सगळी ",
    "5809": "ववि",
    "5810": "च्छेद",
    "5811": "नेमके ",
    "5812": "होऊ शकतो.\n\n",
    "5813": "विरोध ",
    "5814": "आत्महत्या\n\n",
    "5815": "शिल्",
    "5816": "संजय लीला भन्सा",
    "5817": "दोघांनी ",
    "5818": "छाया",
    "5819": "छायाचित्र",
    "5820": "विषय ",
    "5821": "यावरील ",
    "5822": "फोटो आणि व्हिडीओ",
    "5823": "ब्रिटि",
    "5824": "लिक ",
    "5825": "क्य",
    "5826": "यासारख्या ",
    "5827": "उपासना ",
    "5828": "्यांच्या",
    "5829": "समाधान ",
    "5830": "गाणि",
    "5831": "वरु",
    "5832": "मुदा",
    "5833": "आग्र",
    "5834": "सिंह राजपू",
    "5835": "ट्रोल",
    "5836": "जॅ",
    "5837": "फेब्रु",
    "5838": " करणा",
    "5839": "कुणी ",
    "5840": "भेद ",
    "5841": "पद्माव",
    "5842": "रिझर्",
    "5843": "रिझर्व्ह ",
    "5844": "पातळीवर ",
    "5845": " काहीही ",
    "5846": "थी ",
    "5847": "णे हे ",
    "5848": "उद्दिष्ट ",
    "5849": "प्रकृ",
    "5850": "दृष्टी",
    "5851": "मिळते.\n\n",
    "5852": "याज",
    "5853": "असतील ",
    "5854": "तज्",
    "5855": "विधी ",
    "5856": "स्वच्छता ",
    "5857": "ही त्यांनी ",
    "5858": "रोज",
    "5859": "त्यांनी आपल्या ",
    "5860": "संघट",
    "5861": "रको",
    "5862": "विभाग ",
    "5863": "परिषदेचे ",
    "5864": "प्रामुख",
    "5865": "न्याच्या ",
    "5866": "पावड",
    "5867": "th",
    "5868": "ओढ",
    "5869": "ऊ नये ",
    "5870": "आहेत.\n\nया ",
    "5871": "मित ",
    "5872": "मृत ",
    "5873": "उपाययोजना ",
    "5874": "मुख्यमंत्र्यांनी ",
    "5875": "सोय",
    "5876": "स्कर ",
    "5877": "हंगा",
    "5878": "चिर",
    "5879": "प्रसाद ",
    "5880": "पालन कर",
    "5881": "दुचा",
    "5882": ", अशी मागणी ",
    "5883": "हॉस्पिटलमध्ये ",
    "5884": "ही सं",
    "5885": "ज्यामध्ये ",
    "5886": "प्रियं",
    "5887": "12",
    "5888": "जहा",
    "5889": "\"\"\"\n\n",
    "5890": "त्यामुळे, ",
    "5891": "मान आणि ",
    "5892": "-ए",
    "5893": "-ए-",
    "5894": "मोहम्मद ",
    "5895": "परीक्षे",
    "5896": "निकाल",
    "5897": "समाजाला ",
    "5898": "दर्जा ",
    "5899": "मीटर",
    "5900": "सांगितले की, ",
    "5901": "खुलासा ",
    "5902": "बाकी",
    "5903": "ही गोष्ट ",
    "5904": "टात ",
    "5905": "ाराचा ",
    "5906": "वितर",
    "5907": "प्रतिबंध",
    "5908": "कोविड-19 ",
    "5909": "३० ",
    "5910": "नंतरच्या ",
    "5911": "29 ",
    "5912": "पृथ्वीवर ",
    "5913": "भूमीवर ",
    "5914": "११",
    "5915": "आरोपीला ",
    "5916": "डप",
    "5917": "खेळी ",
    "5918": "बी. ",
    "5919": "पाचा ",
    "5920": "गू",
    "5921": "काय म्हणाल",
    "5922": "साधन ",
    "5923": "सध्या",
    "5924": "पोलीस निरीक्षक ",
    "5925": "ुरि",
    "5926": "जाती",
    "5927": "आजारी ",
    "5928": " काढून ",
    "5929": "डिजिटल ",
    "5930": "टेल",
    "5931": "एफटी",
    "5932": "२३ ",
    "5933": "वर्गातील ",
    "5934": "देशाची ",
    "5935": "वाटत अस",
    "5936": "ही बैठक ",
    "5937": "य़ा",
    "5938": "२८",
    "5939": "ल्याण",
    "5940": "जामीन ",
    "5941": "अर्ज ",
    "5942": "पर्यावरण",
    "5943": "प्रकाश ",
    "5944": "विमा",
    "5945": " मंत्रालय ",
    "5946": "21 ",
    "5947": "ूत",
    "5948": "हिंदू",
    "5949": "मुस्लिम ",
    "5950": "गर ",
    "5951": "मिसळ",
    "5952": ".\n\nते ",
    "5953": "दुर्घटने",
    "5954": "१४ ",
    "5955": "मॉ",
    "5956": "इंडियन ",
    "5957": "घेऊ शक",
    "5958": "ण्याची गरज आहे.\n\n",
    "5959": "खरा",
    "5960": "जनरल ",
    "5961": " सिंग ",
    "5962": "IP",
    "5963": "मुलं ",
    "5964": "ज्यामुळे ",
    "5965": "वाढतच ",
    "5966": "णीय ",
    "5967": "संबं",
    "5968": " सरकारला ",
    "5969": "केंद्रीय मंत्रिमंडळा",
    "5970": "सचिव ",
    "5971": "माध",
    "5972": "इतिहास ",
    "5973": "पट्टी ",
    "5974": "व्हायला ",
    "5975": "ाहीत ",
    "5976": "झाल्यानंतर ",
    "5977": "60 ",
    "5978": "१२ ",
    "5979": "लीत ",
    "5980": "णे व ",
    "5981": "माला",
    "5982": "उशि",
    "5983": "दुसरीकडे ",
    "5984": "अटकेत",
    "5985": ". मग ",
    "5986": "व्यापार",
    "5987": "कूल ",
    "5988": "शाश्",
    "5989": "शाश्वत ",
    "5990": "नाश",
    "5991": "विज्ञान आणि तंत्रज्ञान ",
    "5992": "तक्रारी",
    "5993": "सुरक्षि",
    "5994": "महिन्यां",
    "5995": "वीज",
    "5996": "लढाई",
    "5997": "याचा अर्थ ",
    "5998": "लाला ",
    "5999": "राऊत "
  },
  "bpe_merges": [
    [
      158,
      170
    ],
    [
      172,
      1
    ],
    [
      182,
      209
    ],
    [
      170,
      1
    ],
    [
      0,
      0
    ],
    [
      177,
      1
    ],
    [
      15,
      213
    ],
    [
      148,
      1
    ],
    [
      182,
      159
    ],
    [
      170,
      159
    ],
    [
      1,
      133
    ],
    [
      211,
      1
    ],
    [
      152,
      1
    ],
    [
      121,
      168
    ],
    [
      177,
      215
    ],
    [
      182,
      158
    ],
    [
      170,
      118
    ],
    [
      159,
      182
    ],
    [
      159,
      1
    ],
    [
      177,
      161
    ],
    [
      170,
      161
    ],
    [
      170,
      168
    ],
    [
      13,
      1
    ],
    [
      148,
      211
    ],
    [
      167,
      182
    ],
    [
      153,
      217
    ],
    [
      164,
      170
    ],
    [
      138,
      220
    ],
    [
      222,
      223
    ],
    [
      164,
      171
    ],
    [
      133,
      1
    ],
    [
      159,
      170
    ],
    [
      182,
      168
    ],
    [
      157,
      170
    ],
    [
      148,
      172
    ],
    [
      133,
      182
    ],
    [
      161,
      1
    ],
    [
      167,
      170
    ],
    [
      161,
      212
    ],
    [
      168,
      180
    ],
    [
      147,
      211
    ],
    [
      148,
      170
    ],
    [
      138,
      210
    ],
    [
      148,
      217
    ],
    [
      138,
      214
    ],
    [
      138,
      212
    ],
    [
      121,
      147
    ],
    [
      174,
      221
    ],
    [
      120,
      167
    ],
    [
      1,
      157
    ],
    [
      152,
      214
    ],
    [
      255,
      171
    ],
    [
      152,
      212
    ],
    [
      1,
      167
    ],
    [
      152,
      210
    ],
    [
      177,
      148
    ],
    [
      133,
      170
    ],
    [
      153,
      170
    ],
    [
      152,
      171
    ],
    [
      218,
      1
    ],
    [
      157,
      173
    ],
    [
      152,
      170
    ],
    [
      148,
      182
    ],
    [
      150,
      177
    ],
    [
      161,
      170
    ],
    [
      172,
      215
    ],
    [
      133,
      159
    ],
    [
      209,
      1
    ],
    [
      209,
      118
    ],
    [
      147,
      1
    ],
    [
      168,
      210
    ],
    [
      138,
      1
    ],
    [
      260,
      1
    ],
    [
      151,
      224
    ],
    [
      150,
      171
    ],
    [
      244,
      166
    ],
    [
      219,
      159
    ],
    [
      152,
      230
    ],
    [
      232,
      118
    ],
    [
      118,
      150
    ],
    [
      141,
      229
    ],
    [
      164,
      227
    ],
    [
      167,
      1
    ],
    [
      153,
      159
    ],
    [
      133,
      218
    ],
    [
      148,
      210
    ],
    [
      170,
      216
    ],
    [
      164,
      1
    ],
    [
      167,
      118
    ],
    [
      158,
      1
    ],
    [
      118,
      148
    ],
    [
      166,
      182
    ],
    [
      157,
      241
    ],
    [
      161,
      214
    ],
    [
      246,
      144
    ],
    [
      164,
      177
    ],
    [
      140,
      170
    ],
    [
      156,
      170
    ],
    [
      157,
      282
    ],
    [
      152,
      177
    ],
    [
      161,
      210
    ],
    [
      148,
      180
    ],
    [
      148,
      171
    ],
    [
      157,
      171
    ],
    [
      303,
      210
    ],
    [
      249,
      216
    ],
    [
      307,
      214
    ],
    [
      174,
      1
    ],
    [
      121,
      153
    ],
    [
      150,
      182
    ],
    [
      173,
      159
    ],
    [
      222,
      264
    ],
    [
      219,
      228
    ],
    [
      161,
      211
    ],
    [
      159,
      180
    ],
    [
      233,
      149
    ],
    [
      300,
      143
    ],
    [
      164,
      241
    ],
    [
      286,
      274
    ],
    [
      155,
      170
    ],
    [
      148,
      212
    ],
    [
      148,
      214
    ],
    [
      150,
      170
    ],
    [
      165,
      171
    ],
    [
      133,
      228
    ],
    [
      180,
      161
    ],
    [
      172,
      245
    ],
    [
      320,
      215
    ],
    [
      156,
      218
    ],
    [
      148,
      223
    ],
    [
      162,
      214
    ],
    [
      314,
      121
    ],
    [
      168,
      171
    ],
    [
      118,
      1
    ],
    [
      138,
      211
    ],
    [
      243,
      245
    ],
    [
      157,
      1
    ],
    [
      164,
      159
    ],
    [
      165,
      182
    ],
    [
      240,
      140
    ],
    [
      158,
      177
    ],
    [
      135,
      170
    ],
    [
      148,
      177
    ],
    [
      157,
      210
    ],
    [
      15,
      1
    ],
    [
      168,
      214
    ],
    [
      168,
      170
    ],
    [
      147,
      170
    ],
    [
      133,
      225
    ],
    [
      269,
      339
    ],
    [
      167,
      225
    ],
    [
      211,
      118
    ],
    [
      229,
      212
    ],
    [
      151,
      170
    ],
    [
      161,
      180
    ],
    [
      29,
      213
    ],
    [
      147,
      210
    ],
    [
      138,
      171
    ],
    [
      167,
      226
    ],
    [
      161,
      228
    ],
    [
      133,
      177
    ],
    [
      153,
      174
    ],
    [
      165,
      170
    ],
    [
      230,
      210
    ],
    [
      222,
      177
    ],
    [
      133,
      212
    ],
    [
      161,
      182
    ],
    [
      168,
      212
    ],
    [
      219,
      170
    ],
    [
      118,
      145
    ],
    [
      157,
      180
    ],
    [
      148,
      227
    ],
    [
      118,
      252
    ],
    [
      148,
      173
    ],
    [
      147,
      214
    ],
    [
      171,
      118
    ],
    [
      165,
      210
    ],
    [
      147,
      268
    ],
    [
      167,
      177
    ],
    [
      133,
      145
    ],
    [
      224,
      1
    ],
    [
      218,
      182
    ],
    [
      171,
      216
    ],
    [
      133,
      172
    ],
    [
      153,
      173
    ],
    [
      161,
      220
    ],
    [
      143,
      1
    ],
    [
      167,
      173
    ],
    [
      277,
      263
    ],
    [
      157,
      177
    ],
    [
      167,
      159
    ],
    [
      133,
      180
    ],
    [
      288,
      217
    ],
    [
      153,
      334
    ],
    [
      148,
      159
    ],
    [
      230,
      171
    ],
    [
      164,
      145
    ],
    [
      159,
      171
    ],
    [
      162,
      1
    ],
    [
      167,
      180
    ],
    [
      164,
      212
    ],
    [
      164,
      172
    ],
    [
      158,
      180
    ],
    [
      151,
      171
    ],
    [
      248,
      338
    ],
    [
      153,
      1
    ],
    [
      133,
      217
    ],
    [
      152,
      299
    ],
    [
      148,
      224
    ],
    [
      150,
      211
    ],
    [
      135,
      217
    ],
    [
      164,
      224
    ],
    [
      118,
      155
    ],
    [
      161,
      177
    ],
    [
      150,
      180
    ],
    [
      165,
      133
    ],
    [
      161,
      172
    ],
    [
      124,
      153
    ],
    [
      148,
      215
    ],
    [
      135,
      1
    ],
    [
      152,
      182
    ],
    [
      138,
      218
    ],
    [
      150,
      173
    ],
    [
      134,
      170
    ],
    [
      150,
      210
    ],
    [
      143,
      170
    ],
    [
      301,
      147
    ],
    [
      325,
      217
    ],
    [
      252,
      1
    ],
    [
      272,
      165
    ],
    [
      143,
      172
    ],
    [
      164,
      226
    ],
    [
      162,
      210
    ],
    [
      161,
      223
    ],
    [
      226,
      149
    ],
    [
      140,
      1
    ],
    [
      159,
      173
    ],
    [
      267,
      226
    ],
    [
      318,
      151
    ],
    [
      370,
      226
    ],
    [
      159,
      177
    ],
    [
      128,
      239
    ],
    [
      257,
      214
    ],
    [
      416,
      227
    ],
    [
      135,
      182
    ],
    [
      152,
      211
    ],
    [
      150,
      1
    ],
    [
      248,
      243
    ],
    [
      172,
      216
    ],
    [
      219,
      180
    ],
    [
      164,
      210
    ],
    [
      157,
      172
    ],
    [
      222,
      214
    ],
    [
      164,
      218
    ],
    [
      135,
      180
    ],
    [
      273,
      135
    ],
    [
      170,
      215
    ],
    [
      266,
      167
    ],
    [
      136,
      177
    ],
    [
      292,
      171
    ],
    [
      161,
      274
    ],
    [
      157,
      381
    ],
    [
      135,
      173
    ],
    [
      310,
      1
    ],
    [
      120,
      412
    ],
    [
      135,
      171
    ],
    [
      301,
      210
    ],
    [
      136,
      143
    ],
    [
      172,
      231
    ],
    [
      147,
      218
    ],
    [
      306,
      140
    ],
    [
      133,
      210
    ],
    [
      337,
      250
    ],
    [
      159,
      230
    ],
    [
      140,
      210
    ],
    [
      170,
      158
    ],
    [
      269,
      134
    ],
    [
      148,
      220
    ],
    [
      312,
      162
    ],
    [
      456,
      215
    ],
    [
      140,
      177
    ],
    [
      152,
      173
    ],
    [
      402,
      171
    ],
    [
      138,
      182
    ],
    [
      152,
      241
    ],
    [
      174,
      152
    ],
    [
      167,
      319
    ],
    [
      225,
      261
    ],
    [
      287,
      263
    ],
    [
      273,
      215
    ],
    [
      124,
      271
    ],
    [
      240,
      436
    ],
    [
      151,
      210
    ],
    [
      120,
      156
    ],
    [
      249,
      313
    ],
    [
      242,
      152
    ],
    [
      153,
      278
    ],
    [
      161,
      171
    ],
    [
      152,
      172
    ],
    [
      136,
      264
    ],
    [
      328,
      155
    ],
    [
      324,
      170
    ],
    [
      128,
      133
    ],
    [
      158,
      173
    ],
    [
      157,
      168
    ],
    [
      219,
      218
    ],
    [
      159,
      210
    ],
    [
      150,
      172
    ],
    [
      135,
      228
    ],
    [
      248,
      250
    ],
    [
      153,
      182
    ],
    [
      262,
      118
    ],
    [
      157,
      151
    ],
    [
      167,
      172
    ],
    [
      136,
      170
    ],
    [
      285,
      340
    ],
    [
      287,
      261
    ],
    [
      145,
      171
    ],
    [
      140,
      172
    ],
    [
      233,
      143
    ],
    [
      331,
      134
    ],
    [
      309,
      237
    ],
    [
      27,
      1
    ],
    [
      310,
      215
    ],
    [
      145,
      1
    ],
    [
      211,
      216
    ],
    [
      153,
      172
    ],
    [
      234,
      362
    ],
    [
      366,
      252
    ],
    [
      140,
      171
    ],
    [
      235,
      146
    ],
    [
      156,
      174
    ],
    [
      210,
      237
    ],
    [
      133,
      171
    ],
    [
      165,
      177
    ],
    [
      153,
      299
    ],
    [
      218,
      170
    ],
    [
      544,
      536
    ],
    [
      165,
      1
    ],
    [
      232,
      358
    ],
    [
      216,
      237
    ],
    [
      209,
      216
    ],
    [
      167,
      168
    ],
    [
      317,
      394
    ],
    [
      162,
      170
    ],
    [
      368,
      220
    ],
    [
      491,
      359
    ],
    [
      121,
      323
    ],
    [
      159,
      172
    ],
    [
      242,
      141
    ],
    [
      145,
      172
    ],
    [
      118,
      216
    ],
    [
      244,
      216
    ],
    [
      267,
      405
    ],
    [
      133,
      372
    ],
    [
      258,
      180
    ],
    [
      150,
      159
    ],
    [
      153,
      177
    ],
    [
      144,
      177
    ],
    [
      367,
      164
    ],
    [
      157,
      404
    ],
    [
      118,
      135
    ],
    [
      212,
      237
    ],
    [
      167,
      171
    ],
    [
      147,
      172
    ],
    [
      286,
      172
    ],
    [
      225,
      263
    ],
    [
      118,
      151
    ],
    [
      140,
      182
    ],
    [
      149,
      214
    ],
    [
      161,
      215
    ],
    [
      502,
      171
    ],
    [
      153,
      145
    ],
    [
      283,
      164
    ],
    [
      233,
      164
    ],
    [
      148,
      256
    ],
    [
      120,
      308
    ],
    [
      249,
      251
    ],
    [
      250,
      427
    ],
    [
      302,
      237
    ],
    [
      151,
      172
    ],
    [
      150,
      218
    ],
    [
      152,
      180
    ],
    [
      470,
      210
    ],
    [
      143,
      210
    ],
    [
      537,
      153
    ],
    [
      3,
      3
    ],
    [
      258,
      171
    ],
    [
      518,
      215
    ],
    [
      284,
      1
    ],
    [
      10,
      1
    ],
    [
      157,
      247
    ],
    [
      479,
      153
    ],
    [
      234,
      275
    ],
    [
      277,
      236
    ],
    [
      153,
      171
    ],
    [
      388,
      214
    ],
    [
      242,
      437
    ],
    [
      133,
      173
    ],
    [
      304,
      441
    ],
    [
      419,
      177
    ],
    [
      247,
      237
    ],
    [
      155,
      182
    ],
    [
      318,
      150
    ],
    [
      138,
      170
    ],
    [
      316,
      424
    ],
    [
      133,
      268
    ],
    [
      289,
      214
    ],
    [
      140,
      214
    ],
    [
      258,
      241
    ],
    [
      257,
      322
    ],
    [
      363,
      357
    ],
    [
      225,
      135
    ],
    [
      440,
      166
    ],
    [
      133,
      226
    ],
    [
      569,
      294
    ],
    [
      219,
      240
    ],
    [
      140,
      180
    ],
    [
      121,
      157
    ],
    [
      225,
      236
    ],
    [
      272,
      134
    ],
    [
      164,
      214
    ],
    [
      230,
      172
    ],
    [
      121,
      158
    ],
    [
      164,
      230
    ],
    [
      233,
      250
    ],
    [
      233,
      148
    ],
    [
      151,
      218
    ],
    [
      379,
      144
    ],
    [
      235,
      216
    ],
    [
      165,
      180
    ],
    [
      156,
      177
    ],
    [
      152,
      167
    ],
    [
      144,
      170
    ],
    [
      121,
      475
    ],
    [
      177,
      231
    ],
    [
      399,
      293
    ],
    [
      150,
      226
    ],
    [
      125,
      1
    ],
    [
      17,
      1
    ],
    [
      217,
      171
    ],
    [
      134,
      177
    ],
    [
      306,
      135
    ],
    [
      219,
      177
    ],
    [
      246,
      157
    ],
    [
      225,
      251
    ],
    [
      135,
      159
    ],
    [
      138,
      229
    ],
    [
      123,
      1
    ],
    [
      147,
      229
    ],
    [
      133,
      227
    ],
    [
      546,
      221
    ],
    [
      292,
      224
    ],
    [
      474,
      148
    ],
    [
      157,
      212
    ],
    [
      238,
      166
    ],
    [
      386,
      237
    ],
    [
      232,
      247
    ],
    [
      165,
      217
    ],
    [
      172,
      298
    ],
    [
      317,
      322
    ],
    [
      238,
      323
    ],
    [
      577,
      142
    ],
    [
      204,
      1
    ],
    [
      233,
      153
    ],
    [
      238,
      418
    ],
    [
      143,
      182
    ],
    [
      152,
      264
    ],
    [
      289,
      228
    ],
    [
      150,
      268
    ],
    [
      257,
      212
    ],
    [
      234,
      242
    ],
    [
      157,
      218
    ],
    [
      225,
      254
    ],
    [
      262,
      319
    ],
    [
      238,
      430
    ],
    [
      286,
      210
    ],
    [
      423,
      221
    ],
    [
      402,
      172
    ],
    [
      337,
      243
    ],
    [
      629,
      335
    ],
    [
      393,
      146
    ],
    [
      277,
      343
    ],
    [
      585,
      239
    ],
    [
      153,
      180
    ],
    [
      165,
      212
    ],
    [
      157,
      175
    ],
    [
      151,
      1
    ],
    [
      466,
      256
    ],
    [
      167,
      218
    ],
    [
      485,
      224
    ],
    [
      138,
      342
    ],
    [
      152,
      285
    ],
    [
      120,
      443
    ],
    [
      420,
      164
    ],
    [
      133,
      175
    ],
    [
      555,
      263
    ],
    [
      117,
      609
    ],
    [
      152,
      326
    ],
    [
      265,
      158
    ],
    [
      157,
      182
    ],
    [
      562,
      147
    ],
    [
      234,
      170
    ],
    [
      219,
      173
    ],
    [
      493,
      212
    ],
    [
      161,
      118
    ],
    [
      454,
      209
    ],
    [
      240,
      216
    ],
    [
      232,
      259
    ],
    [
      153,
      147
    ],
    [
      317,
      278
    ],
    [
      242,
      135
    ],
    [
      153,
      319
    ],
    [
      120,
      282
    ],
    [
      529,
      161
    ],
    [
      269,
      421
    ],
    [
      148,
      387
    ],
    [
      272,
      371
    ],
    [
      332,
      284
    ],
    [
      359,
      662
    ],
    [
      165,
      172
    ],
    [
      257,
      256
    ],
    [
      135,
      225
    ],
    [
      596,
      162
    ],
    [
      153,
      341
    ],
    [
      173,
      1
    ],
    [
      155,
      171
    ],
    [
      446,
      147
    ],
    [
      287,
      236
    ],
    [
      228,
      1
    ],
    [
      250,
      261
    ],
    [
      153,
      178
    ],
    [
      262,
      159
    ],
    [
      249,
      254
    ],
    [
      234,
      347
    ],
    [
      411,
      140
    ],
    [
      242,
      252
    ],
    [
      167,
      212
    ],
    [
      400,
      147
    ],
    [
      216,
      327
    ],
    [
      162,
      212
    ],
    [
      242,
      221
    ],
    [
      417,
      177
    ],
    [
      492,
      139
    ],
    [
      134,
      1
    ],
    [
      164,
      211
    ],
    [
      388,
      256
    ],
    [
      219,
      372
    ],
    [
      567,
      164
    ],
    [
      155,
      612
    ],
    [
      128,
      374
    ],
    [
      435,
      229
    ],
    [
      521,
      335
    ],
    [
      167,
      157
    ],
    [
      367,
      296
    ],
    [
      160,
      220
    ],
    [
      269,
      161
    ],
    [
      411,
      135
    ],
    [
      152,
      449
    ],
    [
      321,
      214
    ],
    [
      153,
      284
    ],
    [
      157,
      390
    ],
    [
      408,
      155
    ],
    [
      228,
      215
    ],
    [
      618,
      147
    ],
    [
      162,
      172
    ],
    [
      271,
      235
    ],
    [
      231,
      120
    ],
    [
      121,
      329
    ],
    [
      301,
      361
    ],
    [
      188,
      1
    ],
    [
      283,
      375
    ],
    [
      258,
      173
    ],
    [
      134,
      174
    ],
    [
      661,
      560
    ],
    [
      216,
      275
    ],
    [
      150,
      224
    ],
    [
      229,
      1
    ],
    [
      160,
      360
    ],
    [
      143,
      217
    ],
    [
      154,
      177
    ],
    [
      125,
      221
    ],
    [
      133,
      214
    ],
    [
      133,
      167
    ],
    [
      287,
      343
    ],
    [
      324,
      171
    ],
    [
      138,
      172
    ],
    [
      161,
      342
    ],
    [
      463,
      325
    ],
    [
      138,
      177
    ],
    [
      147,
      212
    ],
    [
      767,
      401
    ],
    [
      155,
      576
    ],
    [
      153,
      230
    ],
    [
      238,
      347
    ],
    [
      715,
      161
    ],
    [
      133,
      240
    ],
    [
      150,
      212
    ],
    [
      234,
      293
    ],
    [
      233,
      252
    ],
    [
      165,
      168
    ],
    [
      164,
      175
    ],
    [
      509,
      216
    ],
    [
      219,
      182
    ],
    [
      136,
      145
    ],
    [
      143,
      180
    ],
    [
      157,
      211
    ],
    [
      235,
      143
    ],
    [
      140,
      164
    ],
    [
      160,
      211
    ],
    [
      154,
      180
    ],
    [
      209,
      262
    ],
    [
      225,
      315
    ],
    [
      138,
      226
    ],
    [
      174,
      239
    ],
    [
      165,
      264
    ],
    [
      687,
      291
    ],
    [
      284,
      212
    ],
    [
      234,
      311
    ],
    [
      473,
      239
    ],
    [
      265,
      157
    ],
    [
      326,
      212
    ],
    [
      157,
      355
    ],
    [
      233,
      216
    ],
    [
      800,
      564
    ],
    [
      144,
      159
    ],
    [
      138,
      181
    ],
    [
      157,
      341
    ],
    [
      167,
      242
    ],
    [
      138,
      621
    ],
    [
      445,
      453
    ],
    [
      277,
      261
    ],
    [
      368,
      214
    ],
    [
      448,
      278
    ],
    [
      171,
      239
    ],
    [
      134,
      229
    ],
    [
      145,
      210
    ],
    [
      158,
      271
    ],
    [
      326,
      170
    ],
    [
      158,
      247
    ],
    [
      140,
      135
    ],
    [
      216,
      336
    ],
    [
      266,
      542
    ],
    [
      158,
      248
    ],
    [
      19,
      17
    ],
    [
      235,
      167
    ],
    [
      382,
      157
    ],
    [
      216,
      257
    ],
    [
      120,
      153
    ],
    [
      143,
      133
    ],
    [
      283,
      167
    ],
    [
      159,
      212
    ],
    [
      851,
      634
    ],
    [
      219,
      171
    ],
    [
      152,
      231
    ],
    [
      155,
      334
    ],
    [
      234,
      846
    ],
    [
      382,
      475
    ],
    [
      243,
      221
    ],
    [
      225,
      253
    ],
    [
      266,
      144
    ],
    [
      140,
      295
    ],
    [
      332,
      164
    ],
    [
      670,
      151
    ],
    [
      289,
      465
    ],
    [
      262,
      173
    ],
    [
      514,
      224
    ],
    [
      758,
      245
    ],
    [
      348,
      224
    ],
    [
      771,
      216
    ],
    [
      277,
      251
    ],
    [
      140,
      152
    ],
    [
      476,
      308
    ],
    [
      373,
      231
    ],
    [
      447,
      1
    ],
    [
      135,
      162
    ],
    [
      14,
      1
    ],
    [
      741,
      293
    ],
    [
      232,
      236
    ],
    [
      155,
      150
    ],
    [
      166,
      177
    ],
    [
      349,
      578
    ],
    [
      156,
      212
    ],
    [
      209,
      290
    ],
    [
      415,
      171
    ],
    [
      145,
      170
    ],
    [
      540,
      312
    ],
    [
      305,
      135
    ],
    [
      289,
      211
    ],
    [
      333,
      210
    ],
    [
      725,
      280
    ],
    [
      140,
      134
    ],
    [
      123,
      579
    ],
    [
      346,
      335
    ],
    [
      134,
      210
    ],
    [
      337,
      216
    ],
    [
      583,
      148
    ],
    [
      217,
      170
    ],
    [
      602,
      365
    ],
    [
      167,
      174
    ],
    [
      153,
      383
    ],
    [
      157,
      174
    ],
    [
      171,
      265
    ],
    [
      234,
      177
    ],
    [
      420,
      244
    ],
    [
      267,
      158
    ],
    [
      157,
      150
    ],
    [
      173,
      221
    ],
    [
      438,
      1
    ],
    [
      324,
      391
    ],
    [
      646,
      165
    ],
    [
      671,
      170
    ],
    [
      699,
      592
    ],
    [
      287,
      251
    ],
    [
      167,
      151
    ],
    [
      120,
      490
    ],
    [
      155,
      288
    ],
    [
      168,
      1
    ],
    [
      565,
      815
    ],
    [
      173,
      392
    ],
    [
      390,
      149
    ],
    [
      140,
      218
    ],
    [
      148,
      231
    ],
    [
      165,
      224
    ],
    [
      674,
      443
    ],
    [
      228,
      212
    ],
    [
      155,
      172
    ],
    [
      120,
      140
    ],
    [
      238,
      265
    ],
    [
      147,
      295
    ],
    [
      326,
      171
    ],
    [
      289,
      212
    ],
    [
      155,
      173
    ],
    [
      695,
      417
    ],
    [
      669,
      247
    ],
    [
      232,
      452
    ],
    [
      309,
      488
    ],
    [
      122,
      378
    ],
    [
      384,
      409
    ],
    [
      252,
      170
    ],
    [
      234,
      751
    ],
    [
      209,
      259
    ],
    [
      158,
      215
    ],
    [
      272,
      235
    ],
    [
      527,
      164
    ],
    [
      301,
      143
    ],
    [
      270,
      216
    ],
    [
      177,
      280
    ],
    [
      369,
      401
    ],
    [
      13,
      219
    ],
    [
      138,
      268
    ],
    [
      333,
      274
    ],
    [
      745,
      231
    ],
    [
      157,
      225
    ],
    [
      262,
      180
    ],
    [
      148,
      209
    ],
    [
      363,
      239
    ],
    [
      157,
      148
    ],
    [
      265,
      298
    ],
    [
      120,
      694
    ],
    [
      660,
      833
    ],
    [
      121,
      164
    ],
    [
      273,
      164
    ],
    [
      446,
      242
    ],
    [
      556,
      135
    ],
    [
      265,
      706
    ],
    [
      426,
      918
    ],
    [
      165,
      148
    ],
    [
      161,
      241
    ],
    [
      288,
      170
    ],
    [
      545,
      436
    ],
    [
      144,
      911
    ],
    [
      292,
      299
    ],
    [
      161,
      284
    ],
    [
      150,
      174
    ],
    [
      2,
      213
    ],
    [
      155,
      177
    ],
    [
      145,
      179
    ],
    [
      370,
      227
    ],
    [
      143,
      177
    ],
    [
      161,
      146
    ],
    [
      243,
      161
    ],
    [
      513,
      271
    ],
    [
      664,
      158
    ],
    [
      209,
      358
    ],
    [
      287,
      254
    ],
    [
      232,
      216
    ],
    [
      155,
      179
    ],
    [
      314,
      349
    ],
    [
      156,
      172
    ],
    [
      871,
      387
    ],
    [
      270,
      135
    ],
    [
      378,
      1
    ],
    [
      148,
      118
    ],
    [
      250,
      216
    ],
    [
      209,
      608
    ],
    [
      238,
      140
    ],
    [
      122,
      118
    ],
    [
      152,
      135
    ],
    [
      152,
      164
    ],
    [
      249,
      253
    ],
    [
      258,
      381
    ],
    [
      156,
      159
    ],
    [
      120,
      385
    ],
    [
      147,
      285
    ],
    [
      371,
      167
    ],
    [
      346,
      256
    ],
    [
      153,
      150
    ],
    [
      293,
      224
    ],
    [
      639,
      151
    ],
    [
      172,
      161
    ],
    [
      356,
      764
    ],
    [
      258,
      282
    ],
    [
      120,
      164
    ],
    [
      145,
      180
    ],
    [
      229,
      170
    ],
    [
      594,
      143
    ],
    [
      209,
      254
    ],
    [
      736,
      298
    ],
    [
      357,
      261
    ],
    [
      403,
      210
    ],
    [
      462,
      210
    ],
    [
      226,
      157
    ],
    [
      289,
      223
    ],
    [
      740,
      480
    ],
    [
      216,
      248
    ],
    [
      120,
      398
    ],
    [
      538,
      977
    ],
    [
      166,
      1
    ],
    [
      153,
      404
    ],
    [
      652,
      401
    ],
    [
      182,
      200
    ],
    [
      373,
      216
    ],
    [
      152,
      224
    ],
    [
      120,
      159
    ],
    [
      145,
      177
    ],
    [
      120,
      311
    ],
    [
      302,
      413
    ],
    [
      168,
      173
    ],
    [
      270,
      164
    ],
    [
      492,
      280
    ],
    [
      228,
      182
    ],
    [
      143,
      244
    ],
    [
      158,
      214
    ],
    [
      289,
      274
    ],
    [
      839,
      658
    ],
    [
      167,
      384
    ],
    [
      164,
      178
    ],
    [
      970,
      932
    ],
    [
      153,
      229
    ],
    [
      235,
      150
    ],
    [
      688,
      298
    ],
    [
      810,
      271
    ],
    [
      232,
      254
    ],
    [
      120,
      299
    ],
    [
      167,
      214
    ],
    [
      153,
      143
    ],
    [
      128,
      167
    ],
    [
      159,
      214
    ],
    [
      152,
      342
    ],
    [
      235,
      123
    ],
    [
      138,
      118
    ],
    [
      136,
      211
    ],
    [
      677,
      220
    ],
    [
      238,
      362
    ],
    [
      120,
      418
    ],
    [
      143,
      159
    ],
    [
      206,
      213
    ],
    [
      487,
      229
    ],
    [
      1035,
      406
    ],
    [
      275,
      340
    ],
    [
      206,
      1
    ],
    [
      133,
      375
    ],
    [
      510,
      153
    ],
    [
      321,
      212
    ],
    [
      232,
      251
    ],
    [
      500,
      668
    ],
    [
      946,
      171
    ],
    [
      647,
      424
    ],
    [
      724,
      123
    ],
    [
      172,
      158
    ],
    [
      155,
      180
    ],
    [
      235,
      291
    ],
    [
      235,
      455
    ],
    [
      243,
      216
    ],
    [
      923,
      220
    ],
    [
      3,
      213
    ],
    [
      136,
      180
    ],
    [
      155,
      167
    ],
    [
      230,
      177
    ],
    [
      235,
      292
    ],
    [
      143,
      171
    ],
    [
      360,
      261
    ],
    [
      238,
      151
    ],
    [
      558,
      220
    ],
    [
      152,
      410
    ],
    [
      333,
      214
    ],
    [
      243,
      259
    ],
    [
      226,
      151
    ],
    [
      148,
      466
    ],
    [
      289,
      210
    ],
    [
      152,
      288
    ],
    [
      190,
      188
    ],
    [
      293,
      210
    ],
    [
      140,
      147
    ],
    [
      151,
      180
    ],
    [
      284,
      177
    ],
    [
      155,
      1
    ],
    [
      165,
      173
    ],
    [
      225,
      216
    ],
    [
      722,
      598
    ],
    [
      872,
      295
    ],
    [
      435,
      256
    ],
    [
      161,
      164
    ],
    [
      377,
      158
    ],
    [
      423,
      136
    ],
    [
      272,
      340
    ],
    [
      118,
      153
    ],
    [
      367,
      638
    ],
    [
      118,
      261
    ],
    [
      348,
      211
    ],
    [
      155,
      178
    ],
    [
      980,
      365
    ],
    [
      594,
      434
    ],
    [
      471,
      713
    ],
    [
      252,
      210
    ],
    [
      140,
      212
    ],
    [
      499,
      380
    ],
    [
      121,
      512
    ],
    [
      551,
      1
    ],
    [
      297,
      136
    ],
    [
      782,
      414
    ],
    [
      148,
      280
    ],
    [
      189,
      197
    ],
    [
      379,
      227
    ],
    [
      969,
      433
    ],
    [
      231,
      451
    ],
    [
      121,
      271
    ],
    [
      780,
      425
    ],
    [
      153,
      240
    ],
    [
      143,
      173
    ],
    [
      723,
      524
    ],
    [
      351,
      830
    ],
    [
      234,
      171
    ],
    [
      165,
      245
    ],
    [
      233,
      235
    ],
    [
      155,
      227
    ],
    [
      150,
      175
    ],
    [
      232,
      343
    ],
    [
      392,
      231
    ],
    [
      852,
      235
    ],
    [
      304,
      135
    ],
    [
      235,
      433
    ],
    [
      262,
      226
    ],
    [
      676,
      214
    ],
    [
      321,
      223
    ],
    [
      250,
      148
    ],
    [
      373,
      353
    ],
    [
      360,
      263
    ],
    [
      332,
      235
    ],
    [
      246,
      158
    ],
    [
      122,
      380
    ],
    [
      155,
      159
    ],
    [
      287,
      253
    ],
    [
      1021,
      214
    ],
    [
      168,
      164
    ],
    [
      120,
      858
    ],
    [
      321,
      211
    ],
    [
      432,
      167
    ],
    [
      168,
      375
    ],
    [
      177,
      279
    ],
    [
      1130,
      144
    ],
    [
      118,
      140
    ],
    [
      118,
      263
    ],
    [
      143,
      227
    ],
    [
      423,
      493
    ],
    [
      155,
      117
    ],
    [
      158,
      239
    ],
    [
      157,
      229
    ],
    [
      325,
      1
    ],
    [
      283,
      469
    ],
    [
      266,
      164
    ],
    [
      120,
      145
    ],
    [
      1000,
      406
    ],
    [
      482,
      173
    ],
    [
      150,
      168
    ],
    [
      861,
      152
    ],
    [
      285,
      256
    ],
    [
      152,
      459
    ],
    [
      121,
      144
    ],
    [
      267,
      239
    ],
    [
      321,
      210
    ],
    [
      221,
      281
    ],
    [
      513,
      979
    ],
    [
      743,
      221
    ],
    [
      165,
      174
    ],
    [
      228,
      220
    ],
    [
      812,
      889
    ],
    [
      341,
      288
    ],
    [
      900,
      352
    ],
    [
      157,
      378
    ],
    [
      318,
      462
    ],
    [
      690,
      214
    ],
    [
      321,
      465
    ],
    [
      1193,
      245
    ],
    [
      164,
      147
    ],
    [
      377,
      157
    ],
    [
      368,
      210
    ],
    [
      393,
      713
    ],
    [
      306,
      166
    ],
    [
      458,
      147
    ],
    [
      398,
      347
    ],
    [
      155,
      323
    ],
    [
      306,
      350
    ],
    [
      304,
      547
    ],
    [
      169,
      1040
    ],
    [
      159,
      284
    ],
    [
      359,
      135
    ],
    [
      835,
      133
    ],
    [
      153,
      271
    ],
    [
      728,
      442
    ],
    [
      164,
      407
    ],
    [
      159,
      174
    ],
    [
      1054,
      550
    ],
    [
      368,
      212
    ],
    [
      942,
      316
    ],
    [
      123,
      161
    ],
    [
      247,
      597
    ],
    [
      242,
      483
    ],
    [
      133,
      179
    ],
    [
      420,
      561
    ],
    [
      332,
      133
    ],
    [
      476,
      270
    ],
    [
      478,
      214
    ],
    [
      822,
      254
    ],
    [
      266,
      365
    ],
    [
      249,
      167
    ],
    [
      243,
      579
    ],
    [
      134,
      180
    ],
    [
      128,
      157
    ],
    [
      235,
      138
    ],
    [
      1184,
      210
    ],
    [
      155,
      225
    ],
    [
      302,
      336
    ],
    [
      1049,
      804
    ],
    [
      292,
      1220
    ],
    [
      311,
      239
    ],
    [
      297,
      801
    ],
    [
      121,
      405
    ],
    [
      265,
      162
    ],
    [
      1057,
      239
    ],
    [
      445,
      153
    ],
    [
      260,
      258
    ],
    [
      673,
      1107
    ],
    [
      698,
      134
    ],
    [
      177,
      216
    ],
    [
      895,
      374
    ],
    [
      228,
      171
    ],
    [
      167,
      268
    ],
    [
      426,
      430
    ],
    [
      209,
      253
    ],
    [
      209,
      251
    ],
    [
      222,
      180
    ],
    [
      1194,
      976
    ],
    [
      152,
      225
    ],
    [
      377,
      146
    ],
    [
      209,
      811
    ],
    [
      164,
      256
    ],
    [
      710,
      928
    ],
    [
      382,
      778
    ],
    [
      133,
      631
    ],
    [
      155,
      1098
    ],
    [
      154,
      170
    ],
    [
      401,
      1
    ],
    [
      147,
      177
    ],
    [
      373,
      213
    ],
    [
      277,
      254
    ],
    [
      246,
      151
    ],
    [
      249,
      291
    ],
    [
      154,
      484
    ],
    [
      271,
      164
    ],
    [
      133,
      787
    ],
    [
      333,
      541
    ],
    [
      434,
      162
    ],
    [
      703,
      324
    ],
    [
      974,
      167
    ],
    [
      145,
      212
    ],
    [
      159,
      1050
    ],
    [
      120,
      118
    ],
    [
      347,
      366
    ],
    [
      121,
      778
    ],
    [
      363,
      133
    ],
    [
      495,
      316
    ],
    [
      1104,
      221
    ],
    [
      326,
      484
    ],
    [
      724,
      657
    ],
    [
      234,
      438
    ],
    [
      731,
      501
    ],
    [
      495,
      173
    ],
    [
      300,
      144
    ],
    [
      431,
      399
    ],
    [
      121,
      140
    ],
    [
      226,
      156
    ],
    [
      905,
      119
    ],
    [
      149,
      1
    ],
    [
      232,
      253
    ],
    [
      255,
      903
    ],
    [
      140,
      211
    ],
    [
      448,
      147
    ],
    [
      460,
      526
    ],
    [
      136,
      229
    ],
    [
      167,
      1143
    ],
    [
      688,
      158
    ],
    [
      568,
      180
    ],
    [
      131,
      162
    ],
    [
      209,
      247
    ],
    [
      468,
      166
    ],
    [
      476,
      261
    ],
    [
      140,
      631
    ],
    [
      209,
      313
    ],
    [
      769,
      170
    ],
    [
      154,
      171
    ],
    [
      121,
      159
    ],
    [
      1210,
      214
    ],
    [
      242,
      282
    ],
    [
      159,
      147
    ],
    [
      158,
      165
    ],
    [
      145,
      214
    ],
    [
      138,
      258
    ],
    [
      363,
      792
    ],
    [
      680,
      383
    ],
    [
      209,
      236
    ],
    [
      619,
      253
    ],
    [
      566,
      826
    ],
    [
      262,
      177
    ],
    [
      431,
      167
    ],
    [
      1153,
      1318
    ],
    [
      234,
      485
    ],
    [
      392,
      298
    ],
    [
      22,
      1
    ],
    [
      135,
      216
    ],
    [
      373,
      364
    ],
    [
      157,
      268
    ],
    [
      490,
      133
    ],
    [
      19,
      1
    ],
    [
      949,
      239
    ],
    [
      285,
      216
    ],
    [
      155,
      152
    ],
    [
      853,
      18
    ],
    [
      158,
      264
    ],
    [
      157,
      239
    ],
    [
      164,
      268
    ],
    [
      189,
      1
    ],
    [
      15,
      1095
    ],
    [
      328,
      158
    ],
    [
      153,
      252
    ],
    [
      165,
      611
    ],
    [
      683,
      316
    ],
    [
      153,
      210
    ],
    [
      447,
      212
    ],
    [
      386,
      327
    ],
    [
      991,
      775
    ],
    [
      270,
      251
    ],
    [
      134,
      226
    ],
    [
      655,
      444
    ],
    [
      817,
      162
    ],
    [
      153,
      118
    ],
    [
      317,
      147
    ],
    [
      134,
      649
    ],
    [
      347,
      200
    ],
    [
      888,
      161
    ],
    [
      213,
      276
    ],
    [
      275,
      210
    ],
    [
      266,
      150
    ],
    [
      591,
      288
    ],
    [
      155,
      176
    ],
    [
      289,
      541
    ],
    [
      251,
      624
    ],
    [
      765,
      135
    ],
    [
      153,
      294
    ],
    [
      1251,
      151
    ],
    [
      992,
      210
    ],
    [
      140,
      278
    ],
    [
      152,
      219
    ],
    [
      153,
      331
    ],
    [
      120,
      226
    ],
    [
      121,
      444
    ],
    [
      431,
      226
    ],
    [
      167,
      178
    ],
    [
      216,
      165
    ],
    [
      785,
      180
    ],
    [
      124,
      398
    ],
    [
      154,
      218
    ],
    [
      844,
      210
    ],
    [
      128,
      152
    ],
    [
      468,
      794
    ],
    [
      124,
      318
    ],
    [
      317,
      302
    ],
    [
      494,
      279
    ],
    [
      306,
      428
    ],
    [
      244,
      148
    ],
    [
      148,
      381
    ],
    [
      238,
      543
    ],
    [
      159,
      211
    ],
    [
      448,
      459
    ],
    [
      148,
      174
    ],
    [
      546,
      152
    ],
    [
      168,
      162
    ],
    [
      1241,
      324
    ],
    [
      408,
      145
    ],
    [
      714,
      215
    ],
    [
      122,
      752
    ],
    [
      1400,
      150
    ],
    [
      458,
      593
    ],
    [
      355,
      221
    ],
    [
      193,
      1
    ],
    [
      135,
      118
    ],
    [
      1073,
      641
    ],
    [
      620,
      261
    ],
    [
      240,
      157
    ],
    [
      321,
      571
    ],
    [
      305,
      832
    ],
    [
      582,
      359
    ],
    [
      981,
      734
    ],
    [
      219,
      217
    ],
    [
      145,
      147
    ],
    [
      238,
      445
    ],
    [
      521,
      256
    ],
    [
      154,
      1
    ],
    [
      286,
      477
    ],
    [
      710,
      823
    ],
    [
      426,
      161
    ],
    [
      1440,
      611
    ],
    [
      481,
      216
    ],
    [
      134,
      159
    ],
    [
      384,
      133
    ],
    [
      574,
      427
    ],
    [
      224,
      329
    ],
    [
      209,
      315
    ],
    [
      377,
      706
    ],
    [
      148,
      279
    ],
    [
      824,
      1290
    ],
    [
      429,
      167
    ],
    [
      297,
      134
    ],
    [
      289,
      571
    ],
    [
      416,
      159
    ],
    [
      283,
      453
    ],
    [
      927,
      221
    ],
    [
      306,
      164
    ],
    [
      419,
      170
    ],
    [
      304,
      162
    ],
    [
      157,
      140
    ],
    [
      329,
      349
    ],
    [
      494,
      231
    ],
    [
      133,
      352
    ],
    [
      120,
      312
    ],
    [
      468,
      356
    ],
    [
      675,
      238
    ],
    [
      180,
      1
    ],
    [
      234,
      149
    ],
    [
      502,
      211
    ],
    [
      415,
      157
    ],
    [
      722,
      284
    ],
    [
      293,
      278
    ],
    [
      528,
      217
    ],
    [
      121,
      1110
    ],
    [
      645,
      259
    ],
    [
      403,
      173
    ],
    [
      26,
      1
    ],
    [
      305,
      164
    ],
    [
      720,
      365
    ],
    [
      780,
      309
    ],
    [
      165,
      225
    ],
    [
      1221,
      1155
    ],
    [
      167,
      230
    ],
    [
      1051,
      791
    ],
    [
      165,
      221
    ],
    [
      267,
      133
    ],
    [
      167,
      210
    ],
    [
      595,
      3
    ],
    [
      304,
      407
    ],
    [
      168,
      159
    ],
    [
      165,
      152
    ],
    [
      250,
      155
    ],
    [
      155,
      217
    ],
    [
      1346,
      1
    ],
    [
      209,
      258
    ],
    [
      122,
      148
    ],
    [
      322,
      259
    ],
    [
      140,
      173
    ],
    [
      164,
      240
    ],
    [
      118,
      143
    ],
    [
      244,
      200
    ],
    [
      150,
      227
    ],
    [
      155,
      1047
    ],
    [
      248,
      351
    ],
    [
      283,
      530
    ],
    [
      384,
      135
    ],
    [
      478,
      212
    ],
    [
      232,
      279
    ],
    [
      133,
      162
    ],
    [
      235,
      215
    ],
    [
      168,
      177
    ],
    [
      386,
      336
    ],
    [
      124,
      150
    ],
    [
      293,
      170
    ],
    [
      248,
      532
    ],
    [
      519,
      153
    ],
    [
      303,
      172
    ],
    [
      151,
      182
    ],
    [
      377,
      298
    ],
    [
      972,
      278
    ],
    [
      760,
      223
    ],
    [
      454,
      216
    ],
    [
      270,
      236
    ],
    [
      479,
      414
    ],
    [
      159,
      233
    ],
    [
      350,
      164
    ],
    [
      148,
      218
    ],
    [
      228,
      210
    ],
    [
      292,
      211
    ],
    [
      337,
      148
    ],
    [
      138,
      180
    ],
    [
      650,
      162
    ],
    [
      242,
      216
    ],
    [
      523,
      148
    ],
    [
      164,
      220
    ],
    [
      121,
      523
    ],
    [
      234,
      1014
    ],
    [
      770,
      135
    ],
    [
      148,
      345
    ],
    [
      288,
      1311
    ],
    [
      118,
      254
    ],
    [
      837,
      1223
    ],
    [
      257,
      554
    ],
    [
      242,
      147
    ],
    [
      155,
      161
    ],
    [
      637,
      212
    ],
    [
      616,
      336
    ],
    [
      357,
      263
    ],
    [
      140,
      350
    ],
    [
      422,
      134
    ],
    [
      209,
      907
    ],
    [
      1096,
      166
    ],
    [
      333,
      212
    ],
    [
      151,
      173
    ],
    [
      580,
      308
    ],
    [
      369,
      216
    ],
    [
      161,
      598
    ],
    [
      133,
      947
    ],
    [
      667,
      172
    ],
    [
      240,
      344
    ],
    [
      1190,
      246
    ],
    [
      154,
      1434
    ],
    [
      1562,
      410
    ],
    [
      148,
      415
    ],
    [
      148,
      394
    ],
    [
      1323,
      134
    ],
    [
      155,
      570
    ],
    [
      556,
      535
    ],
    [
      1149,
      421
    ],
    [
      150,
      181
    ],
    [
      510,
      152
    ],
    [
      642,
      275
    ],
    [
      128,
      154
    ],
    [
      377,
      162
    ],
    [
      1180,
      392
    ],
    [
      243,
      236
    ],
    [
      250,
      215
    ],
    [
      161,
      225
    ],
    [
      121,
      636
    ],
    [
      167,
      162
    ],
    [
      396,
      1368
    ],
    [
      190,
      1
    ],
    [
      266,
      280
    ],
    [
      164,
      174
    ],
    [
      317,
      309
    ],
    [
      156,
      227
    ],
    [
      133,
      231
    ],
    [
      333,
      223
    ],
    [
      260,
      262
    ],
    [
      367,
      235
    ],
    [
      167,
      164
    ],
    [
      265,
      364
    ],
    [
      120,
      1174
    ],
    [
      135,
      175
    ],
    [
      349,
      1204
    ],
    [
      1137,
      166
    ],
    [
      865,
      152
    ],
    [
      651,
      295
    ],
    [
      1425,
      998
    ],
    [
      370,
      159
    ],
    [
      302,
      305
    ],
    [
      975,
      413
    ],
    [
      321,
      541
    ],
    [
      819,
      814
    ],
    [
      526,
      131
    ],
    [
      637,
      220
    ],
    [
      219,
      947
    ],
    [
      153,
      218
    ],
    [
      1081,
      153
    ],
    [
      284,
      171
    ],
    [
      311,
      247
    ],
    [
      141,
      170
    ],
    [
      349,
      149
    ],
    [
      276,
      881
    ],
    [
      224,
      173
    ],
    [
      484,
      247
    ],
    [
      468,
      167
    ],
    [
      121,
      443
    ],
    [
      1156,
      325
    ],
    [
      272,
      164
    ],
    [
      249,
      236
    ],
    [
      507,
      279
    ],
    [
      140,
      235
    ],
    [
      157,
      221
    ],
    [
      357,
      236
    ],
    [
      1002,
      215
    ],
    [
      121,
      299
    ],
    [
      266,
      143
    ],
    [
      399,
      615
    ],
    [
      243,
      253
    ],
    [
      234,
      893
    ],
    [
      490,
      1267
    ],
    [
      817,
      407
    ],
    [
      161,
      453
    ],
    [
      150,
      217
    ],
    [
      129,
      133
    ],
    [
      121,
      123
    ],
    [
      355,
      158
    ],
    [
      202,
      1
    ],
    [
      405,
      171
    ],
    [
      246,
      164
    ],
    [
      8,
      1
    ],
    [
      360,
      236
    ],
    [
      159,
      404
    ],
    [
      1045,
      165
    ],
    [
      118,
      236
    ],
    [
      156,
      1
    ],
    [
      627,
      236
    ],
    [
      148,
      297
    ],
    [
      766,
      389
    ],
    [
      640,
      395
    ],
    [
      387,
      409
    ],
    [
      630,
      464
    ],
    [
      270,
      296
    ],
    [
      124,
      1399
    ],
    [
      238,
      696
    ],
    [
      257,
      338
    ],
    [
      149,
      180
    ],
    [
      168,
      140
    ],
    [
      438,
      295
    ],
    [
      1074,
      414
    ],
    [
      1627,
      159
    ],
    [
      558,
      211
    ],
    [
      148,
      213
    ],
    [
      434,
      133
    ],
    [
      151,
      211
    ],
    [
      312,
      239
    ],
    [
      157,
      230
    ],
    [
      1303,
      159
    ],
    [
      167,
      135
    ],
    [
      1492,
      534
    ],
    [
      140,
      298
    ],
    [
      362,
      164
    ],
    [
      225,
      290
    ],
    [
      27,
      213
    ],
    [
      154,
      173
    ],
    [
      157,
      152
    ],
    [
      782,
      153
    ],
    [
      333,
      211
    ],
    [
      292,
      172
    ],
    [
      229,
      210
    ],
    [
      246,
      216
    ],
    [
      248,
      216
    ],
    [
      412,
      239
    ],
    [
      602,
      356
    ],
    [
      224,
      177
    ],
    [
      1540,
      295
    ],
    [
      396,
      636
    ],
    [
      331,
      221
    ],
    [
      122,
      167
    ],
    [
      148,
      389
    ],
    [
      136,
      159
    ],
    [
      238,
      1656
    ],
    [
      653,
      261
    ],
    [
      211,
      344
    ],
    [
      277,
      253
    ],
    [
      275,
      256
    ],
    [
      1327,
      159
    ],
    [
      154,
      159
    ],
    [
      855,
      236
    ],
    [
      499,
      1382
    ],
    [
      258,
      210
    ],
    [
      164,
      162
    ],
    [
      517,
      220
    ],
    [
      369,
      1230
    ],
    [
      233,
      395
    ],
    [
      1,
      281
    ],
    [
      283,
      309
    ],
    [
      379,
      433
    ],
    [
      135,
      226
    ],
    [
      316,
      152
    ],
    [
      136,
      515
    ],
    [
      118,
      283
    ],
    [
      481,
      259
    ],
    [
      140,
      1444
    ],
    [
      168,
      218
    ],
    [
      1338,
      891
    ],
    [
      384,
      428
    ],
    [
      250,
      280
    ],
    [
      136,
      240
    ],
    [
      151,
      268
    ],
    [
      149,
      170
    ],
    [
      1296,
      630
    ],
    [
      243,
      247
    ],
    [
      219,
      352
    ],
    [
      308,
      168
    ],
    [
      257,
      342
    ],
    [
      138,
      161
    ],
    [
      803,
      200
    ],
    [
      409,
      464
    ],
    [
      121,
      501
    ],
    [
      762,
      140
    ],
    [
      707,
      243
    ],
    [
      676,
      212
    ],
    [
      234,
      727
    ],
    [
      232,
      290
    ],
    [
      311,
      236
    ],
    [
      144,
      180
    ],
    [
      1078,
      369
    ],
    [
      607,
      144
    ],
    [
      302,
      327
    ],
    [
      308,
      157
    ],
    [
      270,
      259
    ],
    [
      305,
      147
    ],
    [
      473,
      265
    ],
    [
      1271,
      427
    ],
    [
      134,
      173
    ],
    [
      304,
      165
    ],
    [
      511,
      437
    ],
    [
      1308,
      1
    ],
    [
      272,
      304
    ],
    [
      153,
      390
    ],
    [
      1254,
      1499
    ],
    [
      1345,
      892
    ],
    [
      138,
      231
    ],
    [
      234,
      180
    ],
    [
      128,
      161
    ],
    [
      167,
      884
    ],
    [
      135,
      177
    ],
    [
      1227,
      385
    ],
    [
      1417,
      441
    ],
    [
      24,
      1
    ],
    [
      322,
      452
    ],
    [
      1599,
      227
    ],
    [
      297,
      523
    ],
    [
      257,
      1179
    ],
    [
      219,
      212
    ],
    [
      347,
      460
    ],
    [
      273,
      753
    ],
    [
      269,
      162
    ],
    [
      272,
      216
    ],
    [
      467,
      790
    ],
    [
      721,
      164
    ],
    [
      139,
      170
    ],
    [
      153,
      356
    ],
    [
      1333,
      242
    ],
    [
      258,
      247
    ],
    [
      317,
      247
    ],
    [
      124,
      266
    ],
    [
      258,
      177
    ],
    [
      153,
      176
    ],
    [
      191,
      1
    ],
    [
      150,
      167
    ],
    [
      140,
      158
    ],
    [
      143,
      179
    ],
    [
      348,
      534
    ],
    [
      319,
      173
    ],
    [
      1618,
      843
    ],
    [
      297,
      1018
    ],
    [
      803,
      1091
    ],
    [
      248,
      901
    ],
    [
      720,
      214
    ],
    [
      1594,
      168
    ],
    [
      121,
      146
    ],
    [
      21,
      1
    ],
    [
      164,
      138
    ],
    [
      1148,
      156
    ],
    [
      252,
      295
    ],
    [
      795,
      152
    ],
    [
      157,
      240
    ],
    [
      796,
      237
    ],
    [
      135,
      210
    ],
    [
      1426,
      891
    ],
    [
      260,
      219
    ],
    [
      133,
      589
    ],
    [
      167,
      161
    ],
    [
      622,
      210
    ],
    [
      148,
      225
    ],
    [
      167,
      231
    ],
    [
      1025,
      295
    ],
    [
      155,
      218
    ],
    [
      240,
      134
    ],
    [
      371,
      808
    ],
    [
      211,
      161
    ],
    [
      233,
      294
    ],
    [
      744,
      261
    ],
    [
      915,
      216
    ],
    [
      601,
      253
    ],
    [
      140,
      221
    ],
    [
      333,
      465
    ],
    [
      1751,
      1282
    ],
    [
      1821,
      1563
    ],
    [
      768,
      237
    ],
    [
      1005,
      158
    ],
    [
      369,
      143
    ],
    [
      366,
      216
    ],
    [
      297,
      842
    ],
    [
      403,
      172
    ],
    [
      145,
      182
    ],
    [
      391,
      275
    ],
    [
      616,
      413
    ],
    [
      265,
      407
    ],
    [
      141,
      180
    ],
    [
      424,
      1446
    ],
    [
      235,
      1007
    ],
    [
      382,
      141
    ],
    [
      733,
      394
    ],
    [
      321,
      274
    ],
    [
      529,
      245
    ],
    [
      721,
      233
    ],
    [
      517,
      214
    ],
    [
      966,
      590
    ],
    [
      371,
      162
    ],
    [
      121,
      288
    ],
    [
      1844,
      334
    ],
    [
      124,
      375
    ],
    [
      1074,
      153
    ],
    [
      135,
      218
    ],
    [
      250,
      346
    ],
    [
      161,
      378
    ],
    [
      174,
      133
    ],
    [
      1473,
      1266
    ],
    [
      478,
      210
    ],
    [
      161,
      179
    ],
    [
      939,
      1605
    ],
    [
      504,
      224
    ],
    [
      583,
      752
    ],
    [
      348,
      1347
    ],
    [
      164,
      118
    ],
    [
      25,
      1
    ],
    [
      143,
      212
    ],
    [
      1435,
      883
    ],
    [
      152,
      655
    ],
    [
      153,
      447
    ],
    [
      133,
      157
    ],
    [
      870,
      237
    ],
    [
      152,
      389
    ],
    [
      973,
      224
    ],
    [
      172,
      236
    ],
    [
      807,
      214
    ],
    [
      481,
      236
    ],
    [
      243,
      279
    ],
    [
      140,
      227
    ],
    [
      234,
      854
    ],
    [
      219,
      179
    ],
    [
      172,
      259
    ],
    [
      693,
      248
    ],
    [
      164,
      146
    ],
    [
      478,
      1224
    ],
    [
      170,
      231
    ],
    [
      133,
      1126
    ],
    [
      211,
      236
    ],
    [
      271,
      1359
    ],
    [
      964,
      159
    ],
    [
      495,
      174
    ],
    [
      1572,
      214
    ],
    [
      167,
      271
    ],
    [
      234,
      417
    ],
    [
      164,
      216
    ],
    [
      1465,
      345
    ],
    [
      732,
      229
    ],
    [
      731,
      589
    ],
    [
      616,
      237
    ],
    [
      269,
      425
    ],
    [
      133,
      229
    ],
    [
      471,
      299
    ],
    [
      258,
      168
    ],
    [
      130,
      1852
    ],
    [
      1555,
      1134
    ],
    [
      473,
      1112
    ],
    [
      196,
      1
    ],
    [
      519,
      216
    ],
    [
      1168,
      298
    ],
    [
      491,
      291
    ],
    [
      123,
      245
    ],
    [
      435,
      617
    ],
    [
      118,
      251
    ],
    [
      1038,
      140
    ],
    [
      154,
      561
    ],
    [
      673,
      325
    ],
    [
      461,
      281
    ],
    [
      171,
      308
    ],
    [
      155,
      245
    ],
    [
      10,
      231
    ],
    [
      120,
      176
    ],
    [
      155,
      174
    ],
    [
      1513,
      230
    ],
    [
      159,
      278
    ],
    [
      235,
      331
    ],
    [
      927,
      863
    ],
    [
      285,
      503
    ],
    [
      896,
      1255
    ],
    [
      270,
      254
    ],
    [
      266,
      291
    ],
    [
      508,
      469
    ],
    [
      1464,
      1398
    ],
    [
      564,
      144
    ],
    [
      655,
      489
    ],
    [
      328,
      140
    ],
    [
      155,
      649
    ],
    [
      267,
      1298
    ],
    [
      1733,
      215
    ],
    [
      247,
      327
    ],
    [
      580,
      1734
    ],
    [
      232,
      313
    ],
    [
      543,
      164
    ],
    [
      797,
      1
    ],
    [
      270,
      290
    ],
    [
      248,
      330
    ],
    [
      158,
      223
    ],
    [
      235,
      1849
    ],
    [
      1474,
      1
    ],
    [
      194,
      1
    ],
    [
      297,
      1225
    ],
    [
      252,
      171
    ],
    [
      153,
      164
    ],
    [
      343,
      219
    ],
    [
      232,
      215
    ],
    [
      121,
      744
    ],
    [
      9,
      1
    ],
    [
      920,
      221
    ],
    [
      776,
      385
    ],
    [
      120,
      417
    ],
    [
      168,
      256
    ],
    [
      150,
      273
    ],
    [
      981,
      173
    ],
    [
      234,
      572
    ],
    [
      726,
      344
    ],
    [
      718,
      231
    ],
    [
      528,
      177
    ],
    [
      311,
      355
    ],
    [
      625,
      158
    ],
    [
      439,
      326
    ],
    [
      226,
      1349
    ],
    [
      517,
      211
    ],
    [
      913,
      200
    ],
    [
      165,
      118
    ],
    [
      246,
      242
    ],
    [
      1877,
      138
    ],
    [
      152,
      361
    ],
    [
      869,
      164
    ],
    [
      674,
      535
    ],
    [
      760,
      214
    ],
    [
      877,
      886
    ],
    [
      237,
      276
    ],
    [
      232,
      608
    ],
    [
      174,
      278
    ],
    [
      999,
      308
    ],
    [
      122,
      403
    ],
[...]
